<unk>	0
<s>	0
</s>	0
,	-2.84144
▁the	-3.13527
▁of	-3.38844
▁and	-3.63598
▁to	-3.88911
s	-3.96727
.	-4.14163
▁in	-4.15282
▁a	-4.20304
▁is	-4.24556
▁	-4.52112
▁that	-4.67054
▁as	-4.76456
▁it	-4.80404
--	-4.91165
▁"	-4.95234
▁for	-5.07666
▁which	-5.09987
▁be	-5.12994
-	-5.21742
ed	-5.25215
▁not	-5.28827
▁with	-5.29719
ing	-5.3211
:	-5.42757
▁all	-5.44889
;	-5.4592
▁are	-5.4926
▁he	-5.49415
▁one	-5.51647
▁his	-5.51665
▁has	-5.55975
ly	-5.59124
▁this	-5.63759
d	-5.67633
▁an	-5.69119
"	-5.72693
▁have	-5.78384
▁or	-5.82701
▁man	-5.85969
▁at	-5.86346
▁their	-5.86664
▁who	-5.89423
▁from	-5.92776
▁we	-5.93458
▁more	-5.94467
e	-5.95197
▁by	-5.96205
▁so	-6.0061
y	-6.01095
▁they	-6.03137
▁its	-6.03462
▁will	-6.03719
▁The	-6.06841
?	-6.07506
!	-6.07951
▁(	-6.09275
▁but	-6.1038
▁there	-6.20257
t	-6.22846
▁no	-6.25827
▁on	-6.25877
▁I	-6.26466
▁only	-6.29436
'	-6.30774
▁even	-6.31282
▁such	-6.32749
▁himself	-6.35209
▁them	-6.35895
▁our	-6.37443
,"	-6.39446
▁most	-6.39546
▁itself	-6.44114
▁what	-6.45075
▁him	-6.45426
▁been	-6.46626
▁was	-6.46913
▁us	-6.48415
▁men	-6.4889
▁when	-6.49275
r	-6.51002
▁would	-6.51216
▁also	-6.51727
ness	-6.52906
▁may	-6.56853
▁every	-6.56865
▁must	-6.5793
▁can	-6.60033
▁upon	-6.61694
er	-6.66513
▁world	-6.67377
▁A	-6.67963
▁if	-6.68654
in	-6.69151
and	-6.70202
▁than	-6.70279
▁good	-6.70934
▁do	-6.73525
▁other	-6.76535
a	-6.76769
▁perhaps	-6.77232
es	-6.77717
▁self	-6.7785
)	-6.78332
n	-6.78514
▁life	-6.79098
▁still	-6.79104
▁into	-6.80324
▁un	-6.80701
the	-6.8114
▁does	-6.81211
▁things	-6.82135
▁It	-6.844
▁own	-6.84466
▁very	-6.85161
▁any	-6.85212
▁out	-6.8745
I	-6.87809
▁something	-6.88714
▁always	-6.89469
▁=	-6.89477
▁time	-6.92041
▁were	-6.94006
or	-6.94364
▁In	-6.95044
▁great	-6.95904
▁much	-6.96984
▁should	-6.96996
.=--	-6.97009
▁how	-6.97063
▁nature	-6.97633
S	-6.98654
▁soul	-6.99155
▁some	-6.99461
▁too	-6.99563
▁like	-7.00466
▁these	-7.00977
▁themselves	-7.02645
▁had	-7.04339
▁same	-7.05154
it	-7.05817
i	-7.07016
▁say	-7.08489
▁new	-7.08616
▁being	-7.10188
▁without	-7.11397
A	-7.11648
▁now	-7.12082
▁love	-7.1235
▁far	-7.15019
▁spirit	-7.15025
al	-7.17159
able	-7.17584
▁about	-7.18809
ity	-7.19127
▁moral	-7.20515
▁those	-7.20779
▁means	-7.2154
▁through	-7.21806
▁But	-7.22989
▁over	-7.23718
▁S	-7.23719
▁first	-7.24868
▁And	-7.24985
▁fact	-7.25007
l	-7.25116
▁just	-7.26995
▁order	-7.28028
▁could	-7.2804
▁well	-7.28256
▁because	-7.29127
▁old	-7.29971
▁present	-7.30693
en	-7.31426
ion	-7.31582
▁long	-7.31769
."	-7.32105
▁morality	-7.32572
▁He	-7.32927
as	-7.32959
ic	-7.3348
▁philosophy	-7.33505
▁German	-7.33768
▁you	-7.34468
.--	-7.34935
▁human	-7.35826
▁knowledge	-7.35862
m	-7.36106
▁thing	-7.37561
▁sense	-7.38593
▁truth	-7.38682
p	-7.38774
st	-7.3951
on	-7.39612
▁people	-7.39824
▁certain	-7.40119
▁many	-7.40452
▁power	-7.40973
u	-7.4209
c	-7.42219
▁everything	-7.42981
▁however	-7.42989
▁whole	-7.43124
▁almost	-7.44253
▁under	-7.44308
▁free	-7.44504
E	-7.45201
"--	-7.45291
]	-7.45635
▁bad	-7.46366
▁my	-7.46816
▁nothing	-7.4685
T	-7.47194
▁among	-7.48115
▁woman	-7.48201
▁another	-7.4938
▁made	-7.49408
▁here	-7.49891
▁taste	-7.50127
▁make	-7.50169
▁last	-7.50725
▁up	-7.50759
▁way	-7.50877
▁me	-7.51449
The	-7.5235
est	-7.53477
b	-7.54395
▁before	-7.54861
▁heart	-7.55096
▁look	-7.5569
▁once	-7.56396
ous	-7.56434
▁art	-7.56529
▁kind	-7.57191
▁conscience	-7.57661
▁then	-7.57963
▁P	-7.58108
▁become	-7.58745
▁hitherto	-7.5911
▁higher	-7.59197
▁case	-7.60162
▁God	-7.60204
▁philosophers	-7.60843
▁know	-7.61145
ll	-7.61762
▁Europe	-7.62032
▁ourselves	-7.62077
▁thereby	-7.62125
▁where	-7.62189
o	-7.62778
▁individual	-7.63213
▁thought	-7.63303
▁mankind	-7.63588
▁longer	-7.63764
▁science	-7.64691
▁general	-7.64797
▁enough	-7.65128
▁therefore	-7.65141
▁against	-7.65181
▁yet	-7.65243
is	-7.65328
▁To	-7.65332
▁s	-7.65389
that	-7.6563
▁hand	-7.6643
▁pain	-7.67531
f	-7.67804
▁philosopher	-7.68043
▁evil	-7.68339
▁sympathy	-7.68362
▁feeling	-7.68388
ation	-7.68485
▁thus	-7.69931
▁ever	-7.69961
▁form	-7.70891
▁noble	-7.71646
▁religion	-7.72972
▁end	-7.72993
▁others	-7.73074
▁There	-7.73641
ment	-7.7419
▁right	-7.74266
▁belief	-7.74941
▁dangerous	-7.75003
▁really	-7.7502
ce	-7.75251
▁seems	-7.75765
▁origin	-7.76159
▁re	-7.76507
▁instance	-7.76615
▁possible	-7.76654
▁reason	-7.76753
▁called	-7.77064
w	-7.77138
▁question	-7.77611
th	-7.7804
▁find	-7.78237
▁religious	-7.78371
_	-7.79061
to	-7.79644
for	-7.79987
he	-7.80718
P	-7.80777
re	-7.81004
▁best	-7.81139
less	-7.81377
▁view	-7.81905
▁little	-7.81973
▁after	-7.81973
▁point	-7.82043
▁cannot	-7.83888
us	-7.84278
▁_	-7.84972
▁act	-7.8533
▁again	-7.85645
▁precisely	-7.85723
▁This	-7.85921
▁let	-7.86004
▁What	-7.86037
▁regard	-7.86739
),	-7.87003
▁pleasure	-7.87635
▁necessary	-7.87635
▁might	-7.87638
▁above	-7.87737
▁whom	-7.88161
▁day	-7.88311
▁M	-7.88642
▁respect	-7.89013
).	-7.89576
▁C	-7.90572
▁part	-7.9143
ers	-7.9189
ies	-7.92125
N	-7.92778
▁different	-7.93251
▁see	-7.93441
▁Christian	-7.93596
▁often	-7.93651
▁true	-7.93671
▁opinion	-7.93766
▁For	-7.93812
▁cause	-7.94502
▁her	-7.94812
an	-7.94959
C	-7.95596
▁else	-7.9571
▁conduct	-7.9572
▁strength	-7.95722
▁never	-7.95723
▁indeed	-7.95804
▁instinct	-7.96003
▁One	-7.96082
▁believe	-7.96856
O	-7.9693
ive	-7.96978
▁already	-7.97847
▁short	-7.97847
▁according	-7.98066
▁[	-7.98709
▁light	-7.99782
▁feel	-7.99826
▁finally	-8.00075
▁whatever	-8.00083
g	-8.00312
▁value	-8.00333
ant	-8.01772
▁understand	-8.01794
:--	-8.01805
D	-8.02178
▁whether	-8.02308
▁matter	-8.02612
ve	-8.02706
le	-8.03582
▁de	-8.03589
man	-8.03897
▁They	-8.03998
▁music	-8.04518
▁least	-8.0452
ri	-8.04539
▁less	-8.05884
▁ideas	-8.06276
ism	-8.0639
ful	-8.06489
▁acts	-8.06823
▁intellectual	-8.06851
▁nowadays	-8.06907
▁did	-8.06991
▁away	-8.07187
▁effect	-8.07422
▁makes	-8.07849
M	-8.08262
▁D	-8.09117
▁type	-8.09223
▁existence	-8.09231
▁put	-8.09274
▁THE	-8.09349
▁work	-8.09856
▁nor	-8.10169
▁hard	-8.11275
h	-8.11341
?--	-8.11499
▁mean	-8.11607
▁doubt	-8.11627
▁highest	-8.11683
▁suffering	-8.11862
▁place	-8.11917
▁person	-8.12019
▁idea	-8.12327
▁eyes	-8.12784
se	-8.13002
▁go	-8.1331
at	-8.13438
li	-8.13727
▁account	-8.14162
▁That	-8.14377
▁your	-8.14496
▁problem	-8.14834
▁B	-8.15705
▁fear	-8.15759
▁example	-8.16726
▁said	-8.16734
▁faith	-8.16884
▁If	-8.17278
▁master	-8.17385
▁mind	-8.17429
▁word	-8.17451
!--	-8.17505
▁virtue	-8.17508
ance	-8.1811
ent	-8.18919
▁rather	-8.19357
▁anything	-8.19378
▁merely	-8.19528
▁think	-8.19754
▁state	-8.19797
▁generally	-8.20008
▁give	-8.20061
▁knows	-8.20068
ar	-8.20263
▁We	-8.20546
▁she	-8.2177
▁extent	-8.22064
▁history	-8.22136
▁done	-8.22151
▁course	-8.22197
▁influence	-8.2284
▁age	-8.24342
▁two	-8.24838
▁future	-8.24839
▁rank	-8.2484
▁spirits	-8.24846
▁feelings	-8.25352
▁result	-8.25767
▁false	-8.27268
▁subject	-8.27625
▁found	-8.27686
▁towards	-8.27695
▁society	-8.27713
▁powerful	-8.27771
▁god	-8.28268
▁take	-8.28615
▁conception	-8.28687
▁condition	-8.29091
Y	-8.29239
like	-8.29547
▁words	-8.2981
▁wish	-8.30158
um	-8.30523
▁delight	-8.30605
▁justice	-8.30638
owing	-8.30722
▁scientific	-8.30754
▁each	-8.30808
▁greatest	-8.30839
▁T	-8.31043
un	-8.31066
▁need	-8.31819
▁law	-8.31868
ver	-8.31955
but	-8.32058
▁L	-8.32741
U	-8.32884
▁alone	-8.33668
▁Christianity	-8.33866
▁humanity	-8.3387
▁How	-8.34048
▁desire	-8.34503
▁danger	-8.34585
▁experience	-8.34699
ng	-8.34712
▁E	-8.34769
▁live	-8.34833
▁profound	-8.3635
▁fundamental	-8.36464
ING	-8.3658
▁though	-8.36589
▁purpose	-8.36792
▁quite	-8.36795
▁OF	-8.36805
▁taken	-8.36911
▁happiness	-8.36915
▁oneself	-8.3693
▁call	-8.36998
▁better	-8.37026
▁sort	-8.37976
this	-8.39072
▁pre	-8.3966
▁sacrifice	-8.39799
▁opposite	-8.40017
▁necessity	-8.40046
▁expression	-8.40057
day	-8.4009
▁refined	-8.40099
▁rest	-8.40161
ur	-8.40428
▁R	-8.40643
of	-8.41689
▁times	-8.41733
we	-8.41981
▁action	-8.42037
L	-8.4232
▁rule	-8.42504
▁ye	-8.4323
▁delicate	-8.43351
▁species	-8.43351
▁Schopenhauer	-8.43356
▁ancient	-8.4343
▁consequently	-8.43465
▁while	-8.43562
ate	-8.43593
▁NOT	-8.43673
▁use	-8.44063
il	-8.44478
▁manner	-8.44782
▁degree	-8.44799
▁error	-8.44852
▁come	-8.45286
ir	-8.45492
▁c	-8.45578
▁Germans	-8.45627
good	-8.45711
▁w	-8.458
R	-8.45826
▁virtues	-8.45844
!"	-8.45907
▁strong	-8.46195
▁within	-8.46276
▁culture	-8.46419
▁morals	-8.46434
▁IN	-8.46457
▁former	-8.46694
▁difficult	-8.4675
▁language	-8.46799
▁latter	-8.46801
▁brought	-8.46801
▁domain	-8.46858
▁play	-8.46974
▁why	-8.47014
▁metaphysical	-8.47029
▁O	-8.47151
▁freedom	-8.4717
▁So	-8.47291
▁thinking	-8.47452
▁period	-8.48384
▁European	-8.48602
▁comes	-8.48768
▁TO	-8.49865
vi	-8.50208
▁myself	-8.50393
▁further	-8.50412
▁bring	-8.5054
▁personal	-8.50552
▁whose	-8.50828
▁As	-8.51295
▁regarded	-8.51372
▁appear	-8.51632
▁seem	-8.52611
▁takes	-8.52754
▁Is	-8.53511
one	-8.53825
▁easily	-8.54074
▁back	-8.54075
▁development	-8.5409
▁hence	-8.5419
▁Will	-8.54351
they	-8.54389
ical	-8.54697
▁greater	-8.54702
▁1	-8.54864
▁dream	-8.55402
▁conditions	-8.56526
B	-8.56792
which	-8.56835
ual	-8.57308
▁distrust	-8.57461
▁determine	-8.57474
▁instincts	-8.57523
▁earth	-8.57602
It	-8.57907
▁century	-8.5792
▁vanity	-8.5792
▁capacity	-8.57936
▁young	-8.58005
▁common	-8.58025
▁wishes	-8.5808
▁Le	-8.58254
▁g	-8.5826
▁body	-8.58293
▁says	-8.58478
▁friends	-8.58952
▁remain	-8.59429
▁speak	-8.59439
▁F	-8.60191
▁gives	-8.60724
ke	-8.60743
what	-8.60833
ted	-8.61183
ne	-8.61684
▁between	-8.6192
▁contrary	-8.6192
▁simply	-8.6192
▁basis	-8.6194
▁nevertheless	-8.61946
▁ideal	-8.62036
▁Thus	-8.62046
▁down	-8.6208
▁known	-8.62224
ting	-8.63022
age	-8.63047
▁cases	-8.63083
▁becomes	-8.63162
te	-8.63519
▁honour	-8.63526
▁exist	-8.63579
▁name	-8.63712
▁belong	-8.63783
▁dis	-8.64017
▁eye	-8.64182
▁civilization	-8.6422
▁co	-8.64247
▁am	-8.64425
▁desires	-8.64449
▁experiences	-8.6445
ON	-8.64755
G	-8.64992
ling	-8.65053
▁feels	-8.65513
▁strange	-8.65678
▁f	-8.6569
▁praise	-8.65722
EN	-8.65959
▁regards	-8.66025
▁neither	-8.66087
▁cruelty	-8.66092
▁understood	-8.66114
▁natural	-8.662
▁probably	-8.66207
▁On	-8.6627
ro	-8.66301
▁ill	-8.66388
▁equally	-8.66408
ter	-8.66425
▁learned	-8.66612
▁worth	-8.66681
▁learn	-8.67167
▁motives	-8.67485
AL	-8.68119
▁judgment	-8.68484
out	-8.68543
tion	-8.68832
▁'	-8.69112
▁lead	-8.69301
▁con	-8.69433
if	-8.69569
our	-8.69836
▁entire	-8.70039
▁divine	-8.70061
▁eternal	-8.70258
▁character	-8.70425
▁joy	-8.70435
▁keep	-8.70435
▁utility	-8.70436
▁philosophical	-8.70465
▁lower	-8.70478
▁sure	-8.70695
▁circumstances	-8.70739
▁attained	-8.70907
iness	-8.71143
k	-8.71182
om	-8.71485
▁step	-8.71637
▁certainly	-8.71837
ry	-8.71864
▁belongs	-8.72493
▁read	-8.72842
▁sentiment	-8.72961
▁want	-8.73023
▁lives	-8.73197
who	-8.73841
...	-8.74055
▁help	-8.7413
▁fine	-8.74411
▁betray	-8.7442
▁sp	-8.7443
ER	-8.74634
";	-8.74652
▁sign	-8.7498
▁pride	-8.7498
▁thousand	-8.74982
▁during	-8.74988
▁especially	-8.75007
▁together	-8.75009
▁stupidity	-8.75016
▁open	-8.75068
▁years	-8.75389
▁actual	-8.76044
6.	-8.7629
▁longing	-8.77091
ated	-8.77662
▁actions	-8.77703
▁impulse	-8.77912
▁both	-8.7812
▁ages	-8.78249
▁ask	-8.78281
cal	-8.78576
namely	-8.78627
free	-8.78652
▁turn	-8.79216
▁absolute	-8.79443
▁full	-8.79503
▁process	-8.79649
▁intellect	-8.79723
▁child	-8.79732
▁delusion	-8.79752
▁past	-8.79753
▁sake	-8.79764
▁interpretation	-8.79826
▁although	-8.79934
▁loves	-8.80064
▁finds	-8.80109
In	-8.80415
▁head	-8.80421
▁ex	-8.80517
▁believed	-8.80681
▁modern	-8.80708
▁Germany	-8.8082
ty	-8.80894
ure	-8.81148
▁souls	-8.81498
▁attain	-8.822
▁equal	-8.82283
▁stand	-8.82393
▁r	-8.82412
▁mode	-8.82583
▁V	-8.82662
▁slave	-8.82683
▁element	-8.82697
▁t	-8.82733
5.	-8.82742
▁attempt	-8.82774
▁race	-8.82832
?"	-8.83361
▁revenge	-8.83374
F	-8.8346
▁follow	-8.84226
▁genius	-8.84601
▁shame	-8.84694
▁centuries	-8.84742
▁intercourse	-8.84743
▁With	-8.84811
ul	-8.84829
▁satisfaction	-8.8483
▁French	-8.8483
▁historical	-8.84944
▁Every	-8.85053
▁Here	-8.85193
ists	-8.8525
▁religions	-8.85431
▁animal	-8.856
▁emotions	-8.86
▁thoughts	-8.86044
▁consequences	-8.861
▁At	-8.86291
▁therein	-8.86558
▁W	-8.86817
▁lack	-8.87415
tic	-8.87503
ors	-8.87639
ES	-8.87737
ence	-8.87942
▁standard	-8.87964
▁spiritual	-8.8827
▁doing	-8.88951
▁G	-8.89344
▁st	-8.89355
ut	-8.89392
▁secret	-8.89627
▁real	-8.89629
ist	-8.89709
▁English	-8.89971
▁number	-8.90005
▁social	-8.90005
▁universal	-8.90005
▁folly	-8.90005
▁knew	-8.90007
▁style	-8.90007
▁term	-8.90007
▁rational	-8.90007
▁similar	-8.90007
Why	-8.90009
▁home	-8.90011
▁set	-8.90015
▁laugh	-8.90018
▁inner	-8.90025
▁terrible	-8.90027
▁distinction	-8.90031
▁struggle	-8.90047
▁advantage	-8.9007
ED	-8.90155
▁either	-8.90158
▁living	-8.90158
▁small	-8.90158
▁class	-8.90158
▁Even	-8.90163
▁concerning	-8.90191
▁Or	-8.90217
▁around	-8.90304
▁developed	-8.90435
▁formerly	-8.90596
▁lie	-8.90758
▁e	-8.90847
▁beings	-8.91064
--"	-8.91076
▁cap	-8.91163
▁forms	-8.91184
im	-8.91185
▁individuals	-8.91347
▁seeks	-8.91352
ol	-8.91597
▁able	-8.91894
▁impulses	-8.92199
ary	-8.92235
▁sentiments	-8.92299
▁get	-8.92367
▁p	-8.92456
3.	-8.92577
▁hope	-8.931
ad	-8.93186
▁manifest	-8.93254
▁Not	-8.9328
▁N	-8.93309
▁habit	-8.93523
ever	-8.93524
▁saint	-8.93572
▁occasion	-8.93578
▁show	-8.93616
▁results	-8.93703
modern	-8.9446
But	-8.94491
9.	-8.94568
▁en	-8.94588
▁deep	-8.9498
▁pro	-8.9506
▁health	-8.95296
▁exception	-8.9533
▁sin	-8.95423
▁Plato	-8.95535
▁curiosity	-8.95561
▁gradually	-8.95561
▁shall	-8.95561
▁worst	-8.95561
▁inasmuch	-8.95561
▁beautiful	-8.95561
▁psychological	-8.95564
▁reverence	-8.95565
▁wholly	-8.95569
▁movement	-8.95572
▁skepticism	-8.95573
▁reach	-8.95582
▁impossible	-8.95597
▁super	-8.95652
▁blood	-8.95659
▁wisdom	-8.95659
▁immediately	-8.95659
▁half	-8.95668
▁certainty	-8.95672
▁beyond	-8.95722
▁stronger	-8.95774
▁Perhaps	-8.9585
▁FOR	-8.9586
▁Man	-8.96017
▁questions	-8.96044
▁lacking	-8.96105
▁fundamentally	-8.96251
TER	-8.96489
4.	-8.97007
▁imp	-8.97126
▁artist	-8.9727
▁artists	-8.9752
ian	-8.97665
▁command	-8.97821
all	-8.98135
"!	-8.98618
▁grow	-8.98763
▁sun	-8.988
▁ear	-8.99069
▁laws	-8.9925
▁appearance	-8.99441
▁depth	-8.99454
▁relation	-8.99476
▁motive	-8.99522
de	-8.99587
will	-8.99777
▁minds	-8.99826
nd	-8.99941
▁du	-8.99992
op	-9.00048
2.	-9.00054
▁tr	-9.00102
ily	-9.00745
▁care	-9.00936
▁high	-9.00982
▁inspire	-9.01089
▁perceive	-9.01108
▁school	-9.01443
▁having	-9.01443
▁hundred	-9.01443
▁injury	-9.01443
▁sex	-9.01443
▁proud	-9.01443
▁presence	-9.01444
▁venture	-9.01445
▁imagination	-9.01449
▁subtle	-9.01466
▁logical	-9.0147
▁possession	-9.01512
by	-9.01523
▁reality	-9.01531
▁Wagner	-9.01547
▁hold	-9.01553
▁recognized	-9.01605
▁taking	-9.01682
▁DE	-9.01703
▁wait	-9.01718
▁until	-9.01819
▁apart	-9.01863
▁absolutely	-9.0192
▁given	-9.02003
1.	-9.02068
ot	-9.0244
LY	-9.02592
."--	-9.02726
▁moments	-9.0317
▁requires	-9.03203
me	-9.03401
▁force	-9.03402
▁namely	-9.03411
▁ears	-9.03428
7.	-9.03578
▁races	-9.03782
▁war	-9.03878
▁Un	-9.044
▁remains	-9.04402
▁system	-9.045
ch	-9.05069
▁senses	-9.05148
;--	-9.05347
▁object	-9.05425
▁principle	-9.05606
ight	-9.05775
la	-9.06079
8.	-9.06136
▁serve	-9.06202
What	-9.06599
ities	-9.06691
ia	-9.06778
▁prove	-9.06941
▁off	-9.07178
▁interest	-9.07197
▁sees	-9.07242
▁gain	-9.07253
▁ultimate	-9.07334
ews	-9.07357
We	-9.07547
▁afford	-9.07693
▁hatred	-9.07693
▁immense	-9.07693
▁imperative	-9.07693
▁increase	-9.07693
▁maintain	-9.07693
▁neighbour	-9.07693
▁obedience	-9.07693
▁women	-9.07693
▁France	-9.07693
▁answer	-9.07693
▁death	-9.07693
▁solitude	-9.07693
▁talk	-9.07693
▁source	-9.07693
▁aspect	-9.07694
▁qualities	-9.07696
▁single	-9.07699
▁few	-9.07705
▁readily	-9.07712
▁herself	-9.07719
▁ordinary	-9.07734
▁fellow	-9.07734
▁enjoyment	-9.07739
▁otherwise	-9.07876
▁goal	-9.079
▁sufficiently	-9.07929
am	-9.08982
sh	-9.09142
ta	-9.09262
▁estimates	-9.09532
▁non	-9.09715
▁due	-9.0975
▁conscious	-9.09753
▁kinds	-9.0983
▁o	-9.10369
▁suffer	-9.10585
▁truths	-9.11666
▁needs	-9.11882
▁require	-9.12031
":	-9.12044
W	-9.12226
▁explanation	-9.12315
▁consideration	-9.12397
▁moment	-9.1243
▁estimate	-9.12431
▁thinks	-9.12436
led	-9.12443
▁2	-9.12693
▁hear	-9.12788
▁path	-9.12862
IS	-9.12966
qui	-9.13187
perhaps	-9.13272
x	-9.13309
que	-9.1343
▁prevail	-9.13817
▁favour	-9.1383
▁rare	-9.13856
▁wrong	-9.13937
▁break	-9.13941
▁essential	-9.13978
▁deceive	-9.14001
▁deal	-9.14057
▁weak	-9.14122
▁courage	-9.14301
▁father	-9.14355
▁memory	-9.1436
▁prompt	-9.1436
▁significance	-9.1436
▁task	-9.1436
▁mask	-9.1436
▁disposition	-9.1436
▁accept	-9.1436
▁comparison	-9.14361
▁community	-9.14362
▁characteristic	-9.14376
▁severity	-9.144
▁evolution	-9.14404
▁seriousness	-9.1447
▁painful	-9.14501
▁foundation	-9.14516
uch	-9.14696
▁goes	-9.14699
▁closely	-9.14715
▁highly	-9.14799
▁continue	-9.15434
▁passions	-9.15662
el	-9.15744
▁books	-9.15794
▁nations	-9.15999
▁systems	-9.16528
no	-9.16636
H	-9.16731
va	-9.16972
ally	-9.1827
▁allow	-9.18638
▁today	-9.1892
▁willing	-9.19205
ble	-9.19374
▁enjoy	-9.19444
▁states	-9.19451
▁consequence	-9.19573
▁Greek	-9.1972
▁friend	-9.19785
▁special	-9.20063
▁l	-9.20401
▁H	-9.20556
cy	-9.20638
▁intention	-9.2069
ine	-9.207
izing	-9.20941
▁render	-9.21188
▁disguise	-9.21215
▁honest	-9.21247
▁late	-9.21319
▁oblig	-9.21439
▁thou	-9.215
▁TEMPO	-9.21503
▁Truth	-9.21503
▁carry	-9.21503
▁enemy	-9.21503
▁hidden	-9.21503
▁popular	-9.21503
▁refinement	-9.21503
▁seldom	-9.21503
▁suspicion	-9.21503
▁tendency	-9.21503
▁ruling	-9.21503
▁sought	-9.21503
▁three	-9.21503
▁egoism	-9.21503
▁Indeed	-9.21503
▁ought	-9.21504
▁standpoint	-9.21506
▁valuations	-9.21508
▁relationship	-9.2151
▁exercise	-9.21511
▁grasp	-9.21511
▁cease	-9.21513
▁strive	-9.2152
▁proper	-9.21531
▁uncertain	-9.21531
▁extraordinary	-9.21531
▁insight	-9.21538
▁sometime	-9.21542
▁lose	-9.21543
▁immoral	-9.21545
▁elevation	-9.2155
▁evidence	-9.2155
▁phenomena	-9.2155
▁dogma	-9.21551
▁agreeable	-9.21564
istic	-9.21565
▁contempt	-9.21627
▁instinctive	-9.21628
▁felt	-9.2163
▁children	-9.21631
▁born	-9.21636
nt	-9.21646
▁foreign	-9.21672
▁rich	-9.2168
▁faculty	-9.21714
▁responsibility	-9.21714
▁dreadful	-9.21757
▁suddenly	-9.21774
▁Hence	-9.21777
▁established	-9.21804
▁essentially	-9.21918
▁loft	-9.22023
▁naturally	-9.22176
▁When	-9.22219
▁along	-9.22275
▁profoundly	-9.22405
▁finer	-9.22484
▁close	-9.22529
so	-9.22856
▁consider	-9.23626
be	-9.23629
▁discipline	-9.23775
▁sight	-9.23809
▁forth	-9.24189
▁stands	-9.24382
▁IS	-9.24564
▁wants	-9.24668
UE	-9.24674
ations	-9.25049
men	-9.25498
▁seek	-9.25744
tro	-9.25819
▁calls	-9.26088
▁charm	-9.26541
ge	-9.27047
▁emotion	-9.27176
▁generation	-9.27181
▁conclusion	-9.27205
▁sound	-9.27209
ish	-9.27804
▁matters	-9.28032
▁formula	-9.28177
ber	-9.2829
There	-9.28359
▁possess	-9.28375
▁ra	-9.28417
ig	-9.28432
red	-9.28469
▁constant	-9.28805
▁acquire	-9.28826
▁success	-9.2894
ding	-9.29019
ating	-9.29093
▁useful	-9.29111
▁mere	-9.29146
▁original	-9.29164
▁Power	-9.29195
▁church	-9.29195
▁genuine	-9.29195
▁gregarious	-9.29195
▁peculiar	-9.29195
▁second	-9.29195
▁silence	-9.29195
▁tragedy	-9.29195
▁distance	-9.29195
▁potent	-9.29195
▁triumph	-9.29195
▁altogether	-9.29195
▁doctrine	-9.29195
▁daring	-9.292
▁vice	-9.29226
▁wise	-9.29238
▁since	-9.29242
▁necessarily	-9.29246
▁Goethe	-9.29246
▁superiority	-9.29261
▁successful	-9.29279
▁spirituality	-9.29313
▁involved	-9.29313
▁connection	-9.29333
▁usually	-9.29335
▁24	-9.29348
▁later	-9.29379
▁apparently	-9.29385
▁ground	-9.29429
▁holy	-9.29481
▁grateful	-9.29514
▁15	-9.29532
▁whoever	-9.29595
▁ones	-9.29669
not	-9.29674
▁manifestation	-9.29682
▁progress	-9.29695
▁allowed	-9.29793
▁No	-9.29809
ped	-9.29811
per	-9.29975
▁b	-9.30052
ring	-9.30063
▁speaking	-9.30216
▁la	-9.30391
▁happens	-9.30394
▁soon	-9.30936
▁event	-9.31206
▁goodness	-9.31227
rs	-9.31365
▁events	-9.31369
▁notion	-9.31377
▁forces	-9.31812
IC	-9.31812
▁m	-9.31886
are	-9.32089
reference	-9.32347
▁side	-9.32801
▁judgments	-9.32809
▁exists	-9.33015
▁dreams	-9.33321
!"--	-9.33337
▁ha	-9.33432
▁Europeans	-9.33659
▁BE	-9.34238
liness	-9.34421
▁pass	-9.34788
ose	-9.35073
▁misunderstand	-9.354
▁psychologist	-9.35478
[	-9.35579
▁complete	-9.35589
▁scholar	-9.35604
some	-9.35659
low	-9.35671
▁h	-9.35683
▁run	-9.35862
▁superficial	-9.35981
nature	-9.36067
▁youth	-9.36371
How	-9.36428
German	-9.36435
came	-9.36445
▁values	-9.36452
▁express	-9.36716
let	-9.36887
▁causes	-9.36931
▁conceal	-9.36937
▁clear	-9.36954
▁advance	-9.37175
▁die	-9.37201
▁anti	-9.37216
▁lai	-9.37261
▁interpret	-9.37333
▁sick	-9.37371
▁18	-9.3739
▁mass	-9.37422
▁Socrates	-9.37528
▁sharp	-9.37528
▁thirst	-9.37528
▁bottom	-9.37528
▁deception	-9.37528
▁desirable	-9.37528
▁disgust	-9.37528
▁erroneous	-9.37528
▁independent	-9.37528
▁mutual	-9.37528
▁notwithstanding	-9.37528
▁political	-9.37528
▁sensitive	-9.37528
▁heaven	-9.37528
▁innocent	-9.37528
▁brain	-9.37529
▁devil	-9.3753
▁magic	-9.3753
▁democratic	-9.37537
▁practice	-9.37541
▁fair	-9.37549
▁UN	-9.37555
▁forgotten	-9.3756
▁lost	-9.37577
▁salvation	-9.37584
▁responsible	-9.37584
▁accustomed	-9.3761
▁counter	-9.37611
▁28	-9.37613
▁27	-9.37617
▁poor	-9.37619
▁22	-9.37629
▁constraint	-9.37637
▁decided	-9.3764
▁26	-9.37643
▁25	-9.3765
▁17	-9.37685
▁19	-9.37701
▁took	-9.37732
▁21	-9.37765
▁Our	-9.37835
▁except	-9.37857
▁Nature	-9.37977
▁deceived	-9.37982
▁fully	-9.37999
▁exceptional	-9.38011
▁ready	-9.38017
▁concealed	-9.38073
▁thereof	-9.38084
VE	-9.38277
ap	-9.38332
che	-9.38403
▁separate	-9.38405
TH	-9.38548
where	-9.38557
▁demands	-9.38662
▁came	-9.38685
▁fearful	-9.38693
▁placed	-9.38791
such	-9.38883
▁caste	-9.38903
▁wished	-9.39127
▁sensations	-9.3918
[1	-9.39342
▁custom	-9.39377
▁ago	-9.39458
ise	-9.40018
▁notions	-9.40144
ego	-9.40227
▁manifests	-9.40598
ld	-9.4093
▁loved	-9.40971
▁son	-9.41295
CE	-9.41447
ect	-9.41605
▁di	-9.4219
EST	-9.42398
")	-9.42551
▁errors	-9.42555
ca	-9.42809
ove	-9.43419
"?	-9.43499
z	-9.43819
self	-9.43832
gr	-9.43832
▁masters	-9.44202
SE	-9.44288
▁sublime	-9.4432
▁nation	-9.44593
▁sub	-9.44648
▁claim	-9.44681
▁book	-9.44683
do	-9.44787
IL	-9.45117
with	-9.45315
how	-9.45385
truth	-9.45408
natural	-9.45498
think	-9.45519
bad	-9.45621
ility	-9.4577
To	-9.45888
▁trouble	-9.45942
os	-9.45988
ize	-9.45991
▁opinions	-9.4602
▁serious	-9.46075
▁accord	-9.46125
▁23	-9.46247
▁16	-9.46263
▁pure	-9.46312
ide	-9.46352
▁near	-9.46474
▁agree	-9.46485
▁sur	-9.46506
▁superior	-9.46541
▁Be	-9.46543
stood	-9.46572
▁plebeian	-9.46582
▁utter	-9.46587
▁symbol	-9.46619
▁wild	-9.46619
▁ashamed	-9.46619
▁circle	-9.46619
▁employ	-9.46619
▁gratitude	-9.46619
▁heavy	-9.46619
▁involuntary	-9.46619
▁likewise	-9.46619
▁majority	-9.46619
▁manifold	-9.46619
▁mother	-9.46619
▁mysterious	-9.46619
▁obvious	-9.46619
▁pessimist	-9.46619
▁principal	-9.46619
▁symptom	-9.46619
▁welfare	-9.46619
▁observation	-9.46619
▁After	-9.46619
▁service	-9.46619
▁easy	-9.4662
▁beginning	-9.4662
▁mediocre	-9.4662
▁spite	-9.4662
▁average	-9.4662
▁scorn	-9.46621
▁forward	-9.46621
▁night	-9.46621
▁difference	-9.46621
▁duties	-9.46629
▁fix	-9.4663
▁treat	-9.46632
▁permit	-9.4664
▁duty	-9.46645
ust	-9.46646
▁spoken	-9.46646
▁stone	-9.4666
▁rid	-9.46662
▁earlie	-9.46662
▁behind	-9.4668
▁organization	-9.4668
iest	-9.4669
▁virtuous	-9.46693
▁enlightenment	-9.46695
▁fast	-9.46698
▁hate	-9.46716
▁vain	-9.46725
▁hencefor	-9.46726
▁fain	-9.46738
▁thoroughly	-9.46749
▁strongest	-9.46768
▁deed	-9.46793
▁weaker	-9.46803
▁education	-9.46822
▁realm	-9.46844
▁subjection	-9.46848
▁traditional	-9.46899
▁From	-9.46901
▁anew	-9.46949
▁preservation	-9.47011
▁coming	-9.47012
▁happened	-9.47017
ook	-9.47047
▁whereas	-9.47074
▁honesty	-9.47115
▁discovered	-9.47118
▁aid	-9.4718
▁j	-9.47284
▁His	-9.47301
▁rendered	-9.47323
▁got	-9.47431
▁party	-9.47843
▁existed	-9.47871
▁herd	-9.48029
oth	-9.48034
▁begins	-9.48306
ified	-9.48666
ts	-9.48679
▁understanding	-9.48816
▁regarding	-9.49173
there	-9.49233
na	-9.49347
▁po	-9.49514
ff	-9.49532
▁teach	-9.49682
▁grows	-9.49815
bility	-9.50001
▁cont	-9.50227
▁attempts	-9.50378
▁draw	-9.50416
▁wind	-9.50968
);	-9.51092
ple	-9.5116
nce	-9.51171
▁fa	-9.51225
▁speaks	-9.51384
?"--	-9.51545
▁appears	-9.51786
▁pla	-9.52074
▁d	-9.52194
▁Ma	-9.52489
▁peoples	-9.52494
▁WE	-9.52779
CH	-9.52899
▁bas	-9.52979
▁rel	-9.53033
way	-9.53385
consciousness	-9.53647
human	-9.53742
▁8	-9.5382
▁press	-9.54022
▁problems	-9.5416
actually	-9.54363
▁persons	-9.54375
▁picture	-9.54531
▁method	-9.54614
ew	-9.54624
▁prejudice	-9.54635
▁sensation	-9.54667
▁passion	-9.54734
▁discover	-9.54894
▁thinker	-9.55153
▁14	-9.55209
▁develop	-9.5548
freedom	-9.55517
woman	-9.55528
This	-9.55573
morality	-9.55601
One	-9.55617
▁fashion	-9.56026
ard	-9.56173
▁constitute	-9.56233
▁sudden	-9.56234
▁sufficient	-9.56236
▁definite	-9.56264
▁author	-9.56294
▁gra	-9.5633
▁blind	-9.56445
ITY	-9.56449
▁coarse	-9.56463
▁cold	-9.56469
▁poet	-9.5655
qua	-9.56613
connected	-9.56619
▁Napoleon	-9.56619
▁Richard	-9.56619
▁appreciate	-9.56619
▁blame	-9.56619
▁clumsy	-9.56619
▁destiny	-9.56619
▁external	-9.56619
▁gentle	-9.56619
▁organic	-9.56619
▁priest	-9.56619
▁various	-9.56619
▁utmost	-9.56619
▁North	-9.56619
▁root	-9.56619
▁attitude	-9.5662
▁reward	-9.5662
▁color	-9.5662
▁supremacy	-9.5662
▁acknowledge	-9.5662
▁enduring	-9.5662
▁display	-9.56624
▁WHAT	-9.56626
▁CHA	-9.56627
▁resist	-9.56631
cept	-9.56633
▁RE	-9.56635
▁house	-9.56636
▁chance	-9.56646
▁subtlety	-9.56651
▁protection	-9.5666
▁invention	-9.5666
▁impression	-9.56661
▁bow	-9.56662
▁owe	-9.56663
▁Now	-9.56669
▁psychology	-9.56687
▁victory	-9.56687
▁familiar	-9.56687
live	-9.56695
▁reflection	-9.56696
▁authority	-9.567
▁stupid	-9.56726
▁everywhere	-9.56796
▁cost	-9.56797
▁Finally	-9.56804
▁tree	-9.56808
▁grown	-9.56822
▁modest	-9.56826
▁You	-9.56849
▁personality	-9.56849
▁classes	-9.56862
▁mark	-9.56893
▁anyone	-9.5694
go	-9.56954
▁Moral	-9.56961
▁concerned	-9.57005
▁MA	-9.57043
▁purely	-9.57052
▁constantly	-9.57135
▁add	-9.57181
▁MAN	-9.57273
▁requirements	-9.57361
ions	-9.57375
▁below	-9.57387
▁fr	-9.57466
▁OUR	-9.57581
▁An	-9.57583
▁mastery	-9.57656
▁besides	-9.57785
▁metaphysics	-9.57788
):	-9.5784
▁experienced	-9.57846
▁insist	-9.58011
▁remained	-9.58068
▁rights	-9.58108
▁hardly	-9.58292
▁ethics	-9.58426
▁rate	-9.58544
▁bo	-9.58687
▁cha	-9.5871
mo	-9.5878
▁thinkers	-9.58794
▁originate	-9.58847
ial	-9.58933
▁guard	-9.59029
▁greatness	-9.59032
▁scholars	-9.59068
gen	-9.59199
▁rightly	-9.59242
▁led	-9.59513
▁br	-9.60357
▁gets	-9.60417
▁Then	-9.60489
sen	-9.60546
▁animals	-9.60703
▁imagine	-9.60724
▁mis	-9.60886
▁air	-9.61424
▁St	-9.61485
▁honours	-9.61703
▁La	-9.62026
▁represent	-9.62027
▁ho	-9.62275
▁Ha	-9.62545
▁comprehend	-9.62864
▁inflict	-9.62905
▁Wo	-9.62979
▁powers	-9.62984
uc	-9.63016
OR	-9.63676
▁train	-9.65122
▁works	-9.65449
▁win	-9.6564
▁ethic	-9.65666
▁begin	-9.65763
▁cast	-9.65903
UR	-9.65904
▁facts	-9.65968
stead	-9.65975
come	-9.65995
rn	-9.66073
▁test	-9.66107
res	-9.66195
▁repeat	-9.66338
body	-9.6635
art	-9.66397
▁height	-9.66467
When	-9.6661
master	-9.66634
effect	-9.66636
▁Asia	-9.6666
NOT	-9.66667
called	-9.66668
▁believes	-9.66776
ification	-9.67031
moral	-9.67049
▁obtain	-9.67153
▁preach	-9.67163
▁tradition	-9.67387
If	-9.67405
▁possibl	-9.67468
▁narrow	-9.67564
▁wicked	-9.67573
emi	-9.67623
▁utilitarian	-9.67693
ifying	-9.6772
▁create	-9.67724
▁contemporar	-9.6773
▁poison	-9.6773
▁Church	-9.6773
▁afterwards	-9.6773
▁anxiety	-9.6773
▁arbitrary	-9.6773
▁comprehension	-9.6773
▁contrast	-9.6773
▁depression	-9.6773
▁designate	-9.6773
▁easier	-9.6773
▁enemies	-9.6773
▁envy	-9.6773
▁exalted	-9.6773
▁expedient	-9.6773
▁fancy	-9.6773
▁happy	-9.6773
▁labour	-9.6773
▁mirror	-9.6773
▁misunderstood	-9.6773
▁organs	-9.6773
▁petty	-9.6773
▁primitive	-9.6773
▁remote	-9.6773
▁return	-9.6773
▁suspicious	-9.6773
▁adapt	-9.6773
▁please	-9.67731
▁worse	-9.67731
▁image	-9.67731
▁series	-9.67731
▁discern	-9.67731
▁foreground	-9.67731
▁politics	-9.67731
▁tension	-9.67731
▁excitation	-9.67731
▁left	-9.67732
▁outside	-9.67733
▁possibility	-9.67733
▁induce	-9.67733
Good	-9.67733
▁Who	-9.67734
▁disclose	-9.67734
ART	-9.67734
▁nerv	-9.67734
▁aristocratic	-9.67735
▁importance	-9.67736
▁tender	-9.67736
▁inward	-9.67736
Ethic	-9.67737
▁contemplation	-9.67738
▁physiological	-9.67739
▁maxim	-9.67743
▁Roman	-9.67746
▁MUST	-9.67747
▁spring	-9.67756
▁savage	-9.67757
▁game	-9.67759
▁wide	-9.67762
▁content	-9.67768
▁listen	-9.67777
▁position	-9.67777
▁proof	-9.67779
▁enter	-9.67789
▁cry	-9.67792
▁mistaken	-9.67792
▁frequently	-9.67801
▁burden	-9.67806
▁material	-9.67806
▁proposition	-9.67806
▁hypothesis	-9.67807
▁unjust	-9.67821
▁Nay	-9.67822
▁assur	-9.67828
▁granted	-9.6783
▁sad	-9.67878
▁growth	-9.67893
▁29	-9.67906
▁pity	-9.67915
▁slowly	-9.67939
▁merit	-9.6794
▁superstition	-9.67985
▁grace	-9.67989
▁rise	-9.68003
▁avoid	-9.68018
▁unegoistic	-9.68072
ability	-9.68106
▁lay	-9.68109
▁threatening	-9.68152
▁distinguished	-9.68165
ma	-9.68202
▁seriously	-9.68218
▁Whoever	-9.68221
cess	-9.68222
▁disguised	-9.68346
▁dare	-9.68365
cul	-9.68378
▁views	-9.68383
▁seen	-9.68392
▁rarely	-9.68404
▁difficulty	-9.68597
▁control	-9.68617
▁interesting	-9.68677
▁gained	-9.68748
▁Only	-9.68822
LE	-9.68832
▁following	-9.68923
▁reasons	-9.69082
▁sacrificed	-9.69144
▁badness	-9.69156
▁older	-9.69179
▁hero	-9.69197
▁medi	-9.69251
▁distrustful	-9.69333
▁va	-9.69404
▁LE	-9.69408
▁timid	-9.69417
▁amount	-9.69483
▁vi	-9.69518
▁operates	-9.6963
▁meaning	-9.70208
RA	-9.70674
▁sounds	-9.70729
▁conclusions	-9.70731
▁Greeks	-9.70973
▁ga	-9.71048
tant	-9.71463
LO	-9.71489
▁touch	-9.71499
▁depths	-9.71705
▁relations	-9.71718
DE	-9.71802
▁occasions	-9.71913
▁saints	-9.7195
▁arts	-9.72087
ins	-9.72097
▁fam	-9.7228
▁perfect	-9.72571
▁lo	-9.72571
der	-9.73091
ms	-9.73323
▁civilizations	-9.73435
▁names	-9.73453
▁Ye	-9.73713
▁PER	-9.73975
▁pu	-9.74053
ied	-9.74238
OUR	-9.74342
po	-9.74349
ians	-9.74401
▁periods	-9.74433
▁DIS	-9.74549
▁th	-9.74723
MENT	-9.74758
▁peace	-9.74779
ties	-9.75139
ie	-9.75253
ck	-9.7531
fulness	-9.75321
▁operate	-9.75342
des	-9.75798
▁par	-9.7628
ture	-9.76424
▁consist	-9.76596
eep	-9.76714
ag	-9.76982
)--	-9.77569
▁U	-9.77595
▁sea	-9.77599
V	-9.77713
▁happen	-9.77721
▁mention	-9.77756
▁assume	-9.77794
mit	-9.77857
his	-9.77866
▁effects	-9.78018
▁perspective	-9.78265
ean	-9.78291
▁dr	-9.78444
▁[1	-9.78551
ho	-9.78674
▁change	-9.78786
That	-9.79133
work	-9.79135
when	-9.7916
more	-9.79203
must	-9.79237
itself	-9.79273
And	-9.79341
▁sever	-9.7937
ined	-9.7946
▁punish	-9.79592
▁limit	-9.79666
cra	-9.79682
▁establish	-9.79691
▁obey	-9.79698
▁ma	-9.79814
▁injure	-9.7985
▁recognize	-9.79887
▁creat	-9.79908
▁indifferent	-9.79936
▁privilege	-9.79938
▁direct	-9.79979
▁count	-9.79997
▁particular	-9.80054
▁arrive	-9.80083
NESS	-9.80111
▁gods	-9.80127
▁bound	-9.80167
▁ascetic	-9.80196
aught	-9.80201
ship	-9.80206
▁excess	-9.80211
▁WH	-9.80221
▁confess	-9.8023
▁despair	-9.8023
▁feminine	-9.8023
▁innocence	-9.8023
NOW	-9.8023
renunciation	-9.8023
▁Homer	-9.8023
▁ascendancy	-9.8023
▁comprehensive	-9.8023
▁disposed	-9.8023
▁echo	-9.8023
▁enormous	-9.8023
▁firmly	-9.8023
▁hereditary	-9.8023
▁involuntarily	-9.8023
▁misfortune	-9.8023
▁opportun	-9.8023
▁perception	-9.8023
▁physical	-9.8023
▁scarcely	-9.8023
▁sensible	-9.8023
▁shadow	-9.8023
▁simple	-9.8023
▁smile	-9.8023
▁spectacle	-9.8023
▁surrender	-9.8023
▁suspect	-9.8023
▁written	-9.8023
▁illogical	-9.8023
▁overlook	-9.8023
▁silent	-9.8023
▁compulsion	-9.80231
▁hypotheses	-9.80231
▁reveal	-9.80231
▁volition	-9.80231
kept	-9.80231
▁surviv	-9.80231
▁saw	-9.80231
▁blend	-9.80231
▁ruin	-9.80231
▁yield	-9.80231
▁contain	-9.80231
▁moreover	-9.80232
▁voluntary	-9.80232
▁storm	-9.80232
▁Revolution	-9.80232
▁christian	-9.80233
▁provided	-9.80233
▁waking	-9.80234
▁foolish	-9.80235
▁glad	-9.80236
▁product	-9.80236
▁sphere	-9.80237
▁background	-9.80237
▁glance	-9.80241
▁situation	-9.80243
▁Everything	-9.80245
▁classification	-9.80249
▁HIS	-9.80252
▁sanctity	-9.80252
▁occasionally	-9.80257
▁Therefore	-9.80257
▁skin	-9.80258
▁beast	-9.80266
▁gave	-9.80268
▁Supposing	-9.80269
morrow	-9.8029
▁dance	-9.80305
▁prepared	-9.80305
▁WILL	-9.80317
▁synthetic	-9.80317
▁overcome	-9.80319
▁rage	-9.80319
▁fate	-9.8033
▁MORAL	-9.80336
INE	-9.80343
▁ambition	-9.80351
▁antiquity	-9.80351
▁analysis	-9.80352
▁Oh	-9.80352
▁deepest	-9.8036
▁mad	-9.80361
▁punishment	-9.80364
▁gone	-9.80408
▁wanton	-9.80428
▁theory	-9.80432
▁cruel	-9.80452
▁workers	-9.80458
▁including	-9.80467
▁conviction	-9.80467
▁radically	-9.80469
▁making	-9.80471
▁admiration	-9.80471
▁Where	-9.80475
▁family	-9.80482
▁tyranny	-9.80486
▁advocate	-9.80501
▁cri	-9.8057
▁changed	-9.80601
ration	-9.80676
▁flatter	-9.80704
▁argument	-9.80769
▁summ	-9.80778
sp	-9.80787
▁training	-9.80811
▁fruit	-9.80827
innate	-9.80833
▁learnt	-9.80873
▁explained	-9.81031
▁guilt	-9.81038
▁arises	-9.81186
▁severe	-9.81188
GE	-9.81362
▁careful	-9.81406
▁commanding	-9.81424
▁entirely	-9.81425
▁functions	-9.81455
▁worthy	-9.81595
up	-9.81602
▁intentional	-9.81708
▁These	-9.8171
▁ard	-9.81787
▁offer	-9.81798
▁desired	-9.81807
▁sole	-9.8182
▁unity	-9.81847
▁low	-9.81951
mine	-9.81965
▁aim	-9.82089
ger	-9.82586
ans	-9.82743
▁methods	-9.82828
▁mental	-9.82859
▁bar	-9.82992
▁claims	-9.83105
war	-9.83172
▁customs	-9.83256
going	-9.83258
▁hands	-9.83489
IR	-9.83733
▁considerations	-9.84237
▁suffers	-9.84319
▁badly	-9.84404
▁des	-9.84491
▁shows	-9.85062
▁habits	-9.85064
▁base	-9.85116
ga	-9.85159
▁modes	-9.85398
▁artistic	-9.85588
▁attains	-9.85651
▁Th	-9.8745
▁comp	-9.8748
▁degrees	-9.88206
thing	-9.8825
▁build	-9.88439
cious	-9.88578
▁prefer	-9.88977
▁dangers	-9.89096
ably	-9.89476
▁mov	-9.89658
▁conceptions	-9.89665
erous	-9.89938
▁flow	-9.90757
▁alter	-9.91128
sch	-9.91232
ENT	-9.91314
long	-9.91322
▁concern	-9.91459
ack	-9.91479
eat	-9.91578
▁hi	-9.91584
▁da	-9.9166
▁def	-9.91683
▁demand	-9.9197
ction	-9.922
▁inclination	-9.92429
▁instrument	-9.92466
edly	-9.92487
▁assertion	-9.92541
ake	-9.92571
▁Me	-9.92677
just	-9.92693
▁piece	-9.92699
▁creature	-9.9278
9	-9.92796
spirit	-9.9285
act	-9.92893
▁dive	-9.92904
too	-9.93054
control	-9.9337
God	-9.93423
Will	-9.93424
have	-9.93432
world	-9.93433
know	-9.9344
knowledge	-9.9344
▁str	-9.93526
▁write	-9.93606
▁mix	-9.93898
▁esteem	-9.93923
▁deem	-9.93953
j	-9.93969
form	-9.9403
▁strict	-9.94094
▁forget	-9.94106
▁unfortunate	-9.94112
▁arouse	-9.94126
▁final	-9.94141
con	-9.9416
▁unconscious	-9.94164
▁ampl	-9.94316
▁sleep	-9.94365
ium	-9.94397
▁skeptic	-9.944
ological	-9.94404
▁judge	-9.94431
▁measure	-9.94465
▁slight	-9.94491
itude	-9.94513
▁South	-9.94514
▁teeth	-9.94516
OULD	-9.94516
▁AGAINST	-9.94516
▁According	-9.94516
▁Against	-9.94516
▁Granted	-9.94516
▁MORE	-9.94516
▁Rochefoucauld	-9.94516
▁Romanticism	-9.94516
▁accompanying	-9.94516
▁approach	-9.94516
▁awkward	-9.94516
▁beauty	-9.94516
▁benefit	-9.94516
▁benevolence	-9.94516
▁clever	-9.94516
▁cloud	-9.94516
▁comparative	-9.94516
▁conflict	-9.94516
▁consolation	-9.94516
▁constitution	-9.94516
▁decisive	-9.94516
▁deprive	-9.94516
▁disdain	-9.94516
▁fastidious	-9.94516
▁gratification	-9.94516
▁hostile	-9.94516
▁inferior	-9.94516
▁infinite	-9.94516
▁large	-9.94516
▁maintenance	-9.94516
▁middle	-9.94516
▁patience	-9.94516
▁pertain	-9.94516
▁pessimism	-9.94516
▁recluse	-9.94516
▁refrain	-9.94516
▁regular	-9.94516
▁renounce	-9.94516
▁reproach	-9.94516
▁seductive	-9.94516
▁striving	-9.94516
▁succeed	-9.94516
▁support	-9.94516
▁synthesis	-9.94516
▁unselfish	-9.94516
▁voice	-9.94516
Philosoph	-9.94516
beneath	-9.94516
▁corruption	-9.94516
▁criminal	-9.94516
▁escape	-9.94516
▁green	-9.94516
▁independence	-9.94516
▁inversion	-9.94516
▁mellow	-9.94516
▁miraculous	-9.94516
▁opposition	-9.94516
▁perform	-9.94516
▁proportion	-9.94516
▁talent	-9.94516
▁address	-9.94516
▁decay	-9.94516
▁drink	-9.94516
▁endow	-9.94516
▁food	-9.94516
▁frightful	-9.94516
▁riddle	-9.94516
▁risk	-9.94516
▁unknown	-9.94516
▁share	-9.94516
▁breath	-9.94516
▁dark	-9.94517
▁gift	-9.94517
▁justify	-9.94517
▁spell	-9.94517
▁profu	-9.94517
▁addition	-9.94517
▁gradation	-9.94517
▁compassion	-9.94518
▁transform	-9.94518
▁cave	-9.94518
▁deny	-9.94518
▁extinct	-9.94519
▁complex	-9.9452
▁stream	-9.9452
▁NEW	-9.94521
▁endeavour	-9.94521
▁hours	-9.94522
▁yourselves	-9.94523
▁important	-9.94524
▁foot	-9.94525
▁flight	-9.94526
▁attest	-9.94527
▁failure	-9.94527
▁grew	-9.94529
▁finger	-9.9453
▁defective	-9.9453
▁magnificent	-9.94534
▁falsehood	-9.94535
▁variety	-9.94539
ARE	-9.94539
▁THIS	-9.94539
▁grand	-9.9454
▁reverse	-9.94546
▁leg	-9.94546
▁inventive	-9.94548
▁passionate	-9.9455
▁property	-9.9455
OUS	-9.94551
▁doubl	-9.94552
▁recent	-9.94554
▁excessive	-9.94559
cular	-9.94564
▁oppressed	-9.94565
OME	-9.94565
▁laughter	-9.94567
▁quality	-9.9457
▁Without	-9.9457
▁slavery	-9.94571
▁remarkable	-9.94573
▁habitual	-9.94573
▁Doe	-9.94574
▁cut	-9.94582
▁statesman	-9.94594
▁awaken	-9.94598
▁four	-9.946
▁produced	-9.94603
▁bless	-9.94606
▁primordial	-9.94617
▁incline	-9.94617
▁ethical	-9.94627
▁bird	-9.9463
▁extravagant	-9.94635
▁associate	-9.94639
▁dull	-9.9465
▁try	-9.94661
▁latest	-9.94665
▁cho	-9.94671
port	-9.94676
▁considerable	-9.94687
▁epochs	-9.94693
▁gloomy	-9.94698
ulous	-9.947
▁objective	-9.94708
▁wickedness	-9.94722
▁weakness	-9.94726
▁perpetually	-9.94732
▁Yet	-9.94771
▁Among	-9.94791
▁table	-9.94829
▁nobility	-9.9484
▁mortal	-9.94842
▁therewith	-9.94875
▁deeper	-9.94884
▁ten	-9.94887
▁discovery	-9.94904
▁unconsciously	-9.94917
▁bearing	-9.94968
▁denial	-9.94971
▁destruction	-9.94973
▁hunt	-9.94983
▁figure	-9.95026
ustice	-9.95142
▁everyone	-9.95149
▁opposed	-9.95162
▁arrange	-9.95207
▁advanced	-9.95221
ame	-9.95223
ris	-9.95224
▁clearly	-9.95226
▁sickness	-9.9525
▁predicate	-9.95258
▁exercised	-9.95284
▁longest	-9.95291
▁Yea	-9.95304
▁acquired	-9.9533
▁AND	-9.95334
▁noise	-9.95345
▁execut	-9.95365
▁Men	-9.95402
▁ultimately	-9.95473
▁perceived	-9.95508
▁early	-9.95553
▁sho	-9.95557
▁stars	-9.95571
▁wa	-9.95585
▁deeply	-9.95597
▁fools	-9.95626
▁lines	-9.95627
▁soil	-9.95634
▁considered	-9.9564
even	-9.95738
▁lighten	-9.95797
▁continual	-9.95806
▁dominate	-9.95845
▁plants	-9.95944
▁none	-9.95969
▁heard	-9.95973
▁By	-9.96091
▁aside	-9.961
▁standing	-9.96136
satisfied	-9.96148
▁turning	-9.96191
▁meant	-9.96204
▁colours	-9.96262
▁betrayed	-9.96386
tell	-9.96441
ock	-9.96531
▁creatures	-9.96582
▁assertions	-9.96587
ix	-9.96621
▁contemplate	-9.96848
▁admire	-9.96855
▁aims	-9.96888
▁consists	-9.96931
▁allure	-9.96957
▁op	-9.97125
▁stated	-9.97188
ATE	-9.97239
▁commander	-9.97252
▁ends	-9.97265
▁mi	-9.97327
▁total	-9.97396
gle	-9.97399
▁poets	-9.97478
▁differently	-9.97538
post	-9.97769
ze	-9.98435
▁generations	-9.98525
▁enjoys	-9.98849
▁questioning	-9.99198
▁paths	-9.99432
▁bu	-9.99576
ative	-9.99624
ere	-9.99704
ease	-9.99739
▁Gods	-9.99798
change	-9.99914
▁commands	-9.9994
▁sta	-10.0001
▁knowing	-10.0009
▁evident	-10.0059
▁CAN	-10.0061
▁equals	-10.0085
ail	-10.0101
ach	-10.0115
▁lover	-10.0124
UT	-10.0172
▁learns	-10.0192
under	-10.0217
▁customar	-10.036
▁fortunate	-10.0361
land	-10.0379
▁manners	-10.0387
▁domin	-10.0397
ung	-10.0397
ates	-10.0416
▁collecti	-10.0424
ANT	-10.0433
ERE	-10.0433
▁ch	-10.0445
ill	-10.0446
▁der	-10.0469
▁ret	-10.0584
▁influences	-10.0617
▁fly	-10.0663
pire	-10.0672
vel	-10.0697
US	-10.0731
▁imm	-10.0759
non	-10.0777
bu	-10.079
tter	-10.0826
▁critic	-10.0828
=	-10.083
6	-10.0839
7	-10.084
▁su	-10.0847
▁hu	-10.086
▁impose	-10.0875
▁metaphysic	-10.0883
▁repudiat	-10.0886
has	-10.0918
▁stage	-10.0921
▁beside	-10.0923
▁pi	-10.0932
place	-10.0935
▁et	-10.0935
▁colour	-10.0948
"),	-10.096
ade	-10.0979
time	-10.0992
progress	-10.1006
until	-10.1007
Every	-10.1007
experience	-10.1008
while	-10.1008
why	-10.1008
metaphysical	-10.1008
faith	-10.1009
regard	-10.1009
animal	-10.1012
most	-10.1013
amount	-10.1017
head	-10.1022
mount	-10.1023
well	-10.1041
▁protect	-10.1052
▁educat	-10.1054
▁dread	-10.1056
For	-10.1058
▁explain	-10.1063
▁distinguish	-10.1063
▁pray	-10.107
He	-10.1074
▁disease	-10.1081
▁invent	-10.1083
▁logic	-10.1088
▁ban	-10.1091
▁contradict	-10.1098
▁eager	-10.1102
▁bitter	-10.1102
hand	-10.1108
▁absurd	-10.111
▁secur	-10.111
▁access	-10.111
▁select	-10.111
▁brave	-10.1116
nowledge	-10.1117
▁admit	-10.1117
▁recogni	-10.1118
Thou	-10.1118
nasmuch	-10.1118
▁achieve	-10.1118
▁divinit	-10.1118
incomprehensible	-10.1118
▁Madame	-10.1118
▁POWER	-10.1118
▁Schumann	-10.1118
▁Testament	-10.1118
▁Voltaire	-10.1118
▁astray	-10.1118
▁cleave	-10.1118
▁conquest	-10.1118
▁crude	-10.1118
▁dictum	-10.1118
▁empt	-10.1118
▁expense	-10.1118
▁extreme	-10.1118
▁fostered	-10.1118
▁hammer	-10.1118
▁humble	-10.1118
▁ignorance	-10.1118
▁imperious	-10.1118
▁indifference	-10.1118
▁inherited	-10.1118
▁intelligence	-10.1118
▁irrational	-10.1118
▁liberty	-10.1118
▁lurk	-10.1118
▁malicious	-10.1118
▁masculine	-10.1118
▁mislead	-10.1118
▁mouth	-10.1118
▁multitude	-10.1118
▁naivete	-10.1118
▁newspaper	-10.1118
▁novelty	-10.1118
▁physician	-10.1118
▁pleasing	-10.1118
▁populace	-10.1118
▁portentous	-10.1118
▁preliminar	-10.1118
▁public	-10.1118
▁reserved	-10.1118
▁resolution	-10.1118
▁secrecy	-10.1118
▁simultaneous	-10.1118
▁spectator	-10.1118
▁structure	-10.1118
▁surface	-10.1118
▁typical	-10.1118
▁worship	-10.1118
▁wound	-10.1118
▁wretched	-10.1118
▁Beethoven	-10.1118
▁afraid	-10.1118
▁backward	-10.1118
▁dispense	-10.1118
▁dwarf	-10.1118
▁indication	-10.1118
▁repose	-10.1118
▁spoil	-10.1118
▁amaze	-10.1118
▁effort	-10.1118
▁prima	-10.1118
▁purity	-10.1118
▁receive	-10.1118
▁shallow	-10.1118
▁tedious	-10.1118
▁advise	-10.1118
▁midst	-10.1118
▁odour	-10.1118
▁motion	-10.1118
▁plent	-10.1118
▁propagat	-10.1118
▁retain	-10.1118
▁plainly	-10.1118
▁scene	-10.1118
▁loud	-10.1118
▁ANTI	-10.1118
▁bind	-10.1118
▁ONE	-10.1119
conceit	-10.1119
▁communicat	-10.1119
▁calm	-10.1119
▁repulsive	-10.1119
▁thyself	-10.1119
▁phenomenon	-10.1119
rought	-10.1119
▁portion	-10.1119
▁cosmos	-10.1119
▁level	-10.1119
▁mediocrity	-10.1119
▁comedy	-10.1119
▁NEED	-10.1119
▁interrogation	-10.1119
▁attention	-10.1119
▁Alas	-10.1119
▁FEAR	-10.1119
▁refresh	-10.112
▁Aristophanes	-10.112
▁dwell	-10.112
excit	-10.112
▁antithesis	-10.112
▁unconditioned	-10.112
▁appeal	-10.112
▁daily	-10.112
▁cla	-10.112
▁fatherland	-10.112
▁pale	-10.112
▁send	-10.1121
So	-10.1122
▁childish	-10.1122
▁partiality	-10.1122
▁celebrated	-10.1122
▁evolved	-10.1122
▁proceeding	-10.1122
▁healing	-10.1123
▁brief	-10.1123
▁spot	-10.1123
▁throw	-10.1123
▁confusion	-10.1124
▁countless	-10.1124
ARD	-10.1125
▁abuse	-10.1125
▁maturity	-10.1125
▁preten	-10.1125
▁simplicity	-10.1126
▁fall	-10.1126
irresponsibility	-10.1127
▁skeptical	-10.1128
▁persuade	-10.1129
▁Up	-10.1129
▁hide	-10.1129
amid	-10.1129
▁correctly	-10.1129
▁justification	-10.113
▁Englishman	-10.113
fold	-10.113
▁alas	-10.113
▁broken	-10.113
▁HOW	-10.113
▁treasure	-10.113
▁endurable	-10.113
▁sinfulness	-10.113
▁literature	-10.1131
note	-10.1133
▁temptation	-10.1134
▁exactly	-10.1137
▁unconditionally	-10.1137
▁becoming	-10.1138
▁groups	-10.1139
▁moralities	-10.1141
▁untruth	-10.1142
▁compared	-10.1142
▁endure	-10.1143
▁rapidly	-10.1144
▁rever	-10.1145
▁stro	-10.1146
▁coarser	-10.1146
▁effective	-10.1147
▁wit	-10.1148
▁cross	-10.1151
▁distress	-10.1151
▁ape	-10.1152
▁richer	-10.1152
▁essen	-10.1153
▁PRES	-10.116
▁reflect	-10.1161
▁condemned	-10.1165
▁processes	-10.1166
▁unfortunately	-10.1171
▁mystic	-10.1171
▁thank	-10.1173
▁pleasant	-10.1173
▁face	-10.1173
▁directly	-10.1174
▁mission	-10.1175
▁judged	-10.1179
▁prayer	-10.1179
▁ab	-10.1181
▁appropriate	-10.1181
▁obscure	-10.1181
▁deemed	-10.1186
LU	-10.1187
▁sw	-10.1189
▁obeying	-10.1191
▁kill	-10.1191
ras	-10.1193
▁supposing	-10.1194
▁nearly	-10.1196
▁limited	-10.1196
▁beholder	-10.1197
▁weight	-10.1201
▁equality	-10.1203
▁start	-10.1214
▁healthy	-10.1215
▁HE	-10.1216
▁completely	-10.1218
▁originally	-10.1223
▁AD	-10.1231
▁inspired	-10.1232
rapture	-10.1241
▁pen	-10.1248
▁expressed	-10.125
▁entit	-10.1251
▁affairs	-10.1251
▁proved	-10.1258
cked	-10.126
▁divined	-10.1272
▁hasty	-10.1279
▁eternally	-10.1285
▁exploit	-10.1289
▁moralists	-10.1305
▁stages	-10.1328
▁critics	-10.1329
▁asked	-10.1338
▁lived	-10.1338
wish	-10.1339
▁instruments	-10.1378
ABLE	-10.1385
▁changes	-10.1401
ough	-10.1404
▁perspectives	-10.1404
▁assumes	-10.1405
▁ne	-10.1426
▁qui	-10.1431
▁AS	-10.1432
gn	-10.1433
▁heights	-10.1444
▁reader	-10.1445
▁sufferer	-10.1454
▁pe	-10.1474
▁fu	-10.1474
▁demons	-10.1478
arch	-10.1478
▁prejudices	-10.1482
▁torn	-10.15
▁Was	-10.1501
▁bear	-10.1503
each	-10.1519
SES	-10.1523
▁deeds	-10.1523
cent	-10.1539
king	-10.1559
▁psychologists	-10.156
▁pin	-10.1588
▁stat	-10.1605
nder	-10.1635
▁sciences	-10.1654
▁hears	-10.1674
IT	-10.1701
▁objects	-10.1719
▁appearances	-10.1758
weep	-10.1784
▁inter	-10.1825
▁believ	-10.1835
▁standards	-10.1838
▁Mo	-10.1852
▁elements	-10.1878
▁slaves	-10.1878
▁FA	-10.1887
▁red	-10.1904
▁guide	-10.1904
ened	-10.1907
tes	-10.1918
▁natures	-10.2001
▁RES	-10.2029
▁tastes	-10.2044
▁awe	-10.2071
▁presented	-10.2091
▁pat	-10.2142
▁questionable	-10.2177
ISE	-10.2209
▁5	-10.2235
▁Ne	-10.2269
pit	-10.2282
ile	-10.2286
ERS	-10.2288
tively	-10.23
mal	-10.2325
▁sorts	-10.2332
hr	-10.2368
▁teache	-10.2387
▁rear	-10.2448
ause	-10.2508
rem	-10.2511
▁le	-10.2532
sighted	-10.2547
bert	-10.255
inted	-10.2574
TO	-10.2582
....	-10.2587
▁perver	-10.2621
gue	-10.2627
ferred	-10.2661
▁ext	-10.2714
▁places	-10.2723
OL	-10.275
aid	-10.2808
▁11	-10.2813
▁12	-10.2814
▁attach	-10.2818
▁13	-10.2856
hearted	-10.286
▁mistake	-10.2892
▁depend	-10.2901
▁sentence	-10.2904
▁entail	-10.2904
ympathy	-10.2905
▁function	-10.2918
▁plant	-10.2919
du	-10.2931
▁Catholic	-10.2933
▁ET	-10.2943
▁year	-10.2945
▁teacher	-10.2952
AND	-10.2976
▁LA	-10.298
great	-10.2994
destined	-10.2995
immediate	-10.2998
disinterested	-10.2998
As	-10.3005
except	-10.3005
Nature	-10.3005
course	-10.3006
given	-10.3007
class	-10.3007
Perhaps	-10.3007
taste	-10.3007
eternal	-10.3008
according	-10.3009
instinct	-10.301
FOR	-10.3011
THE	-10.3013
Here	-10.3014
soul	-10.3014
because	-10.3015
▁vulgar	-10.3017
now	-10.3022
Man	-10.3042
rich	-10.3044
get	-10.3049
action	-10.3049
▁sigh	-10.3051
▁condemn	-10.3062
▁destroy	-10.3063
you	-10.3064
▁oppos	-10.307
▁imperfect	-10.3076
▁radical	-10.3079
▁apparent	-10.308
▁suppose	-10.308
▁despise	-10.308
▁hesitating	-10.3089
god	-10.3089
▁sum	-10.309
▁gloom	-10.3092
▁elevate	-10.3095
▁slow	-10.3098
▁probabl	-10.31
▁cheerful	-10.3101
▁awake	-10.3107
▁distinct	-10.3108
▁remark	-10.311
▁oppose	-10.311
▁confus	-10.3111
▁assert	-10.3113
these	-10.3113
ecause	-10.3113
eligious	-10.3114
▁attract	-10.3114
▁wonder	-10.3115
hood	-10.3116
▁blu	-10.3116
hither	-10.3117
guise	-10.3117
▁vision	-10.3117
▁sweet	-10.3118
Faith	-10.3118
▁EVERY	-10.3118
▁Spinoza	-10.3118
GERMAN	-10.3118
abundance	-10.3118
deceiving	-10.3118
giving	-10.3118
refuted	-10.3118
▁ADDITIONAL	-10.3118
▁Galiani	-10.3118
▁VALUE	-10.3118
▁activity	-10.3118
▁aesthetic	-10.3118
▁ambitious	-10.3118
▁ancestors	-10.3118
▁approximat	-10.3118
▁arbitrariness	-10.3118
▁artifice	-10.3118
▁artificial	-10.3118
▁causality	-10.3118
▁conversation	-10.3118
▁corporeal	-10.3118
▁deduced	-10.3118
▁deportment	-10.3118
▁deterioration	-10.3118
▁emphasiz	-10.3118
▁encounter	-10.3118
▁enthusiasm	-10.3118
▁environment	-10.3118
▁exaggerated	-10.3118
▁follies	-10.3118
▁horror	-10.3118
▁increasing	-10.3118
▁indignant	-10.3118
▁indignation	-10.3118
▁inexplicable	-10.3118
▁liberation	-10.3118
▁loathing	-10.3118
▁ludicrous	-10.3118
▁martyrdom	-10.3118
▁mechanic	-10.3118
▁monstrous	-10.3118
▁mood	-10.3118
▁negative	-10.3118
▁philologist	-10.3118
▁poverty	-10.3118
▁presuppose	-10.3118
▁prevent	-10.3118
▁prison	-10.3118
▁quantity	-10.3118
▁quickly	-10.3118
▁recommend	-10.3118
▁regulate	-10.3118
▁relax	-10.3118
▁resemble	-10.3118
▁resolute	-10.3118
▁rhythm	-10.3118
▁shrink	-10.3118
▁singular	-10.3118
▁straight	-10.3118
▁sympathetic	-10.3118
▁thrill	-10.3118
▁transition	-10.3118
▁trick	-10.3118
▁unavoidabl	-10.3118
▁variations	-10.3118
▁voluntarily	-10.3118
Metaphysic	-10.3118
▁FREE	-10.3118
▁Like	-10.3118
▁Spirit	-10.3118
▁collapse	-10.3118
▁corner	-10.3118
▁decline	-10.3118
▁distort	-10.3118
▁enigma	-10.3118
▁evince	-10.3118
▁exaggeration	-10.3118
▁experiment	-10.3118
▁falsification	-10.3118
▁garden	-10.3118
▁grandfather	-10.3118
▁hesitation	-10.3118
▁implant	-10.3118
▁intuition	-10.3118
▁labor	-10.3118
▁labyrinth	-10.3118
▁paradox	-10.3118
▁preparation	-10.3118
▁price	-10.3118
▁prospect	-10.3118
▁replie	-10.3118
▁satyr	-10.3118
▁solemn	-10.3118
▁tragic	-10.3118
▁vengeance	-10.3118
▁Evil	-10.3118
▁Hegel	-10.3118
▁credit	-10.3118
▁eventually	-10.3118
▁implies	-10.3118
▁temperament	-10.3118
glorification	-10.3118
▁bodies	-10.3118
▁clumsi	-10.3118
▁enmity	-10.3118
▁illusion	-10.3118
▁shade	-10.3118
▁space	-10.3118
▁substance	-10.3118
▁vital	-10.3118
ivalr	-10.3118
▁incapacity	-10.3118
▁literally	-10.3118
▁morning	-10.3118
▁varied	-10.3118
▁OTHER	-10.3118
▁trembl	-10.3118
▁business	-10.3118
▁fire	-10.3118
▁Epicurean	-10.3118
▁defend	-10.3118
▁embodied	-10.3118
▁ordeal	-10.3118
▁sky	-10.3118
▁attack	-10.3118
▁favourite	-10.3118
▁internal	-10.3118
▁isolated	-10.3118
▁story	-10.3118
▁miracle	-10.3118
▁accurately	-10.3118
▁beloved	-10.3118
Should	-10.3118
▁confine	-10.3118
▁pedant	-10.3118
▁posterity	-10.3118
▁abyss	-10.3119
next	-10.3119
▁tongue	-10.3119
▁tyrannical	-10.3119
▁VERY	-10.3119
▁flee	-10.3119
▁irre	-10.3119
▁servile	-10.3119
▁began	-10.3119
▁veritable	-10.3119
▁empir	-10.3119
▁ITS	-10.3119
▁iron	-10.3119
▁Epicurus	-10.3119
▁Rath	-10.3119
▁injurious	-10.3119
▁allegoric	-10.3119
▁industrious	-10.3119
▁noisy	-10.3119
▁servants	-10.3119
▁antagonism	-10.3119
▁reduce	-10.3119
▁aware	-10.3119
▁forgetfulness	-10.3119
▁craftiness	-10.3119
▁disagreeable	-10.3119
▁heredity	-10.3119
▁contemptible	-10.3119
▁gaze	-10.3119
▁WISH	-10.3119
▁piety	-10.3119
▁meet	-10.312
▁burn	-10.312
▁emancipation	-10.312
CTION	-10.312
▁evolving	-10.312
▁flu	-10.312
▁adornment	-10.312
▁nourishment	-10.312
▁maid	-10.312
▁administer	-10.312
▁friendship	-10.312
▁rough	-10.312
▁sorrow	-10.3121
▁continuance	-10.3121
pardon	-10.3121
▁commonplace	-10.3121
▁till	-10.3121
▁incapa	-10.3121
▁fill	-10.3121
▁trust	-10.3121
▁OUT	-10.3121
▁marvelous	-10.3121
expos	-10.3121
▁audaci	-10.3122
▁recollection	-10.3122
▁propensity	-10.3122
▁taught	-10.3122
▁unalterable	-10.3122
▁depart	-10.3122
▁atmosphere	-10.3122
▁indispensable	-10.3122
▁ignoble	-10.3122
▁related	-10.3122
▁PRO	-10.3122
SION	-10.3123
▁AWAY	-10.3123
▁entangled	-10.3123
▁Indian	-10.3123
▁stop	-10.3124
▁creative	-10.3125
▁fail	-10.3125
▁epi	-10.3125
▁instant	-10.3125
▁pious	-10.3126
▁prett	-10.3126
HAT	-10.3126
URE	-10.3128
▁six	-10.3128
▁security	-10.3128
▁absurdity	-10.3128
sanctified	-10.3129
▁preserved	-10.3131
▁devi	-10.3131
▁vast	-10.3132
▁prose	-10.3133
▁Religion	-10.3133
▁Through	-10.3133
▁arbitrarily	-10.3133
▁current	-10.3133
▁feet	-10.3133
▁brute	-10.3133
▁POSSIBLE	-10.3133
▁parents	-10.3133
▁Morality	-10.3136
▁countr	-10.3137
MAL	-10.3138
▁applies	-10.3139
▁helpless	-10.314
▁3	-10.3143
▁arriv	-10.3143
rigin	-10.3144
▁heretofore	-10.3144
▁delightful	-10.3144
▁theologians	-10.3145
▁logician	-10.3145
part	-10.3146
▁promised	-10.3149
▁doubtful	-10.315
▁dear	-10.315
▁Sch	-10.3151
▁nearer	-10.3151
▁masses	-10.3152
▁metaphysician	-10.3154
▁despised	-10.3156
▁elevated	-10.3156
▁supposed	-10.3156
▁soothe	-10.3157
▁direction	-10.3158
▁profoundest	-10.3159
▁mystery	-10.3159
▁box	-10.3162
omething	-10.3164
MORALITY	-10.3166
▁usefulness	-10.3168
barbarity	-10.317
trained	-10.3173
▁usual	-10.3177
▁attached	-10.3177
▁privileged	-10.3182
▁injured	-10.3182
▁assumed	-10.3183
▁whenever	-10.3183
▁particularly	-10.3187
▁protected	-10.3189
▁invented	-10.3189
inspir	-10.319
▁matur	-10.3195
▁realize	-10.3198
▁immediate	-10.3201
▁ob	-10.3202
spirited	-10.3203
▁sla	-10.3203
▁demanded	-10.3203
▁national	-10.3206
▁Science	-10.3213
▁round	-10.3214
ppreciation	-10.3215
sympathy	-10.322
▁obtained	-10.3228
▁oldest	-10.3236
▁tears	-10.3237
▁disinterested	-10.324
ife	-10.325
▁herding	-10.3257
ousness	-10.3258
.=	-10.3267
▁required	-10.3276
eam	-10.3282
rup	-10.3283
▁assumptions	-10.3284
▁decides	-10.3284
▁promises	-10.3285
▁secretly	-10.3289
▁breaking	-10.3293
▁dealing	-10.3295
▁prey	-10.3303
▁Did	-10.3308
▁deserve	-10.331
ince	-10.3311
▁disparage	-10.3312
her	-10.3318
▁growing	-10.3323
▁song	-10.3324
▁net	-10.3327
▁discoverer	-10.3329
▁strangely	-10.3335
terr	-10.3338
▁earthly	-10.3354
▁cultured	-10.3362
▁com	-10.338
idea	-10.3398
▁sink	-10.3399
▁seeming	-10.3404
▁belonging	-10.341
▁inclinations	-10.3427
▁pieces	-10.3427
▁bon	-10.3429
▁honoured	-10.3429
▁concerns	-10.343
▁flows	-10.3432
ould	-10.3432
imposed	-10.3434
▁fo	-10.3435
tan	-10.3447
ora	-10.3452
ador	-10.3455
my	-10.3486
▁calling	-10.3501
▁inhuman	-10.3505
ching	-10.3509
▁helpful	-10.3513
▁tests	-10.3514
▁ni	-10.3531
▁theology	-10.3533
ible	-10.3549
▁pictures	-10.3572
Fo	-10.3587
tious	-10.361
▁qual	-10.3619
▁sc	-10.3619
▁feared	-10.3625
misunderstanding	-10.3682
LED	-10.3694
RD	-10.37
▁actor	-10.3708
tical	-10.372
▁charms	-10.3723
▁move	-10.3726
▁wel	-10.3727
▁moralist	-10.3749
▁respected	-10.3784
▁4	-10.3798
▁7	-10.3812
RY	-10.3814
▁explanations	-10.3819
▁reasoning	-10.3827
rom	-10.3857
rang	-10.3867
▁principles	-10.3869
ank	-10.3896
▁comfort	-10.3912
▁hopes	-10.3964
▁cat	-10.3989
fore	-10.3992
▁Par	-10.3998
▁looking	-10.4007
▁lacks	-10.4026
▁economic	-10.4035
RU	-10.4049
▁ph	-10.4077
ph	-10.4088
▁suggest	-10.4099
▁6	-10.4105
▁reads	-10.4175
pen	-10.4225
cher	-10.4227
RIE	-10.4229
OD	-10.4249
▁disturb	-10.4279
sser	-10.4299
1	-10.4325
hing	-10.4327
TED	-10.4336
▁torture	-10.434
ET	-10.4373
DI	-10.4389
cha	-10.4465
bel	-10.447
▁impart	-10.4501
SPE	-10.4527
minded	-10.455
▁econom	-10.4554
ui	-10.456
?)	-10.4618
tally	-10.468
▁pil	-10.4726
ven	-10.4732
RED	-10.4738
▁expect	-10.4762
▁Ro	-10.479
▁disciplin	-10.4792
ized	-10.4844
OOD	-10.4865
▁Bad	-10.4881
steps	-10.4883
ology	-10.4892
▁cou	-10.4901
urs	-10.4915
▁WA	-10.4949
▁continu	-10.496
▁und	-10.4963
▁hal	-10.4964
stic	-10.4986
▁Ba	-10.5007
rew	-10.5007
▁clos	-10.5062
TY	-10.5101
▁lot	-10.5117
▁subjugat	-10.5131
▁PRE	-10.5196
BLE	-10.522
No	-10.5221
noble	-10.5237
drawn	-10.5252
natured	-10.5276
8	-10.5294
valuation	-10.5307
5	-10.5327
▁determin	-10.533
round	-10.5337
3	-10.535
▁promise	-10.5371
▁decide	-10.5374
unting	-10.5394
▁arise	-10.5407
▁assumption	-10.541
▁affair	-10.5414
▁fool	-10.5417
▁line	-10.5422
▁obligation	-10.5424
▁circumstance	-10.5426
▁requirement	-10.5441
▁whi	-10.5441
cou	-10.5466
vow	-10.5495
Science	-10.5498
supposing	-10.55
worthy	-10.5503
Whoever	-10.5504
argument	-10.5504
Moral	-10.5505
preservation	-10.5505
grateful	-10.5506
wait	-10.5507
although	-10.5508
down	-10.5508
evil	-10.5509
taking	-10.5509
indeed	-10.5509
among	-10.551
better	-10.551
historical	-10.5511
higher	-10.5516
could	-10.5519
life	-10.552
▁behold	-10.5526
near	-10.5528
law	-10.5529
still	-10.5529
▁accident	-10.5531
actor	-10.5532
ANS	-10.5537
whom	-10.5552
suffic	-10.5554
sensu	-10.5558
▁assign	-10.5559
4	-10.5567
▁Certain	-10.5576
▁impatient	-10.5576
▁vigorous	-10.5576
▁practical	-10.5577
▁rapid	-10.5578
▁perpetual	-10.5578
▁conceive	-10.5579
▁thorough	-10.558
▁tempt	-10.558
▁observe	-10.558
▁compare	-10.5583
▁threaten	-10.5588
eign	-10.5591
▁combin	-10.5592
▁necessit	-10.5594
▁Ho	-10.5598
IF	-10.5598
▁mar	-10.5598
▁motley	-10.5601
scientific	-10.5602
▁furthe	-10.5603
▁posit	-10.5603
▁Russia	-10.5605
▁superstitio	-10.5607
▁restrain	-10.5608
▁fli	-10.5609
▁valid	-10.561
eople	-10.561
RAN	-10.5611
hether	-10.5612
semblance	-10.5613
▁keen	-10.5613
▁enlighten	-10.5614
▁adventur	-10.5615
▁shut	-10.5616
oncerning	-10.5616
easonable	-10.5616
volving	-10.5616
sychological	-10.5617
▁insatia	-10.5617
▁CREAT	-10.5617
▁litera	-10.5618
▁circum	-10.5618
▁suprem	-10.5618
▁vol	-10.5618
▁RELIGIO	-10.5618
▁Saint	-10.5618
▁Virtue	-10.5618
doubtedly	-10.5618
▁absorb	-10.5618
▁discourage	-10.5618
▁yesterday	-10.5618
BELIEF	-10.5618
FROM	-10.5618
FUL	-10.5618
abundant	-10.5618
baptize	-10.5618
categorical	-10.5618
divining	-10.5618
morbid	-10.5618
penetrate	-10.5618
renouncing	-10.5618
restricted	-10.5618
▁BELIEVE	-10.5618
▁Between	-10.5618
▁ESPRIT	-10.5618
▁FIRST	-10.5618
▁Feeling	-10.5618
▁Formerly	-10.5618
▁GREAT	-10.5618
▁Horace	-10.5618
▁Luther	-10.5618
▁NATURA	-10.5618
▁NUANCE	-10.5618
▁Prussia	-10.5618
▁Shakespeare	-10.5618
▁Which	-10.5618
▁abstract	-10.5618
▁altruis	-10.5618
▁anguish	-10.5618
▁annihilation	-10.5618
▁aristocracy	-10.5618
▁ascertain	-10.5618
▁battle	-10.5618
▁benevolent	-10.5618
▁black	-10.5618
▁bliss	-10.5618
▁breast	-10.5618
▁broad	-10.5618
▁brother	-10.5618
▁cautious	-10.5618
▁chief	-10.5618
▁climax	-10.5618
▁commonwealth	-10.5618
▁compromise	-10.5618
▁conduce	-10.5618
▁countenance	-10.5618
▁craves	-10.5618
▁cunning	-10.5618
▁decision	-10.5618
▁deduction	-10.5618
▁demonstrate	-10.5618
▁designation	-10.5618
▁devotion	-10.5618
▁dialectic	-10.5618
▁discontent	-10.5618
▁dissembl	-10.5618
▁distracted	-10.5618
▁eloquen	-10.5618
▁enchant	-10.5618
▁exercising	-10.5618
▁exhibit	-10.5618
▁expedienc	-10.5618
▁extensive	-10.5618
▁flesh	-10.5618
▁fragile	-10.5618
▁grammar	-10.5618
▁grammatical	-10.5618
▁granite	-10.5618
▁humanitarian	-10.5618
▁immutable	-10.5618
▁indolence	-10.5618
▁infirm	-10.5618
▁infrequently	-10.5618
▁ingredient	-10.5618
▁juxtaposition	-10.5618
▁length	-10.5618
▁limbs	-10.5618
▁luxur	-10.5618
▁midday	-10.5618
▁mulier	-10.5618
▁obscene	-10.5618
▁paltry	-10.5618
▁patient	-10.5618
▁perilous	-10.5618
▁phantom	-10.5618
▁pompous	-10.5618
▁possibilities	-10.5618
▁procedure	-10.5618
▁pronounce	-10.5618
▁propound	-10.5618
▁prudent	-10.5618
▁reciprocal	-10.5618
▁rejoice	-10.5618
▁revolt	-10.5618
▁rigid	-10.5618
▁rigorous	-10.5618
▁satisfy	-10.5618
▁seduction	-10.5618
▁solution	-10.5618
▁southern	-10.5618
▁specimen	-10.5618
▁sternness	-10.5618
▁stomach	-10.5618
▁subsequent	-10.5618
▁suicide	-10.5618
▁suitably	-10.5618
▁sunshine	-10.5618
▁surprising	-10.5618
▁tenets	-10.5618
▁text	-10.5618
▁unfailing	-10.5618
▁uniformity	-10.5618
▁verdict	-10.5618
▁violation	-10.5618
▁wearisome	-10.5618
Hitherto	-10.5618
depreciation	-10.5618
▁SLAVE	-10.5618
▁applied	-10.5618
▁bloom	-10.5618
▁branch	-10.5618
▁circumscribed	-10.5618
▁commencement	-10.5618
▁convalescen	-10.5618
▁disciple	-10.5618
▁eliminat	-10.5618
▁favor	-10.5618
▁flood	-10.5618
▁harmony	-10.5618
▁historian	-10.5618
▁horizon	-10.5618
▁immortal	-10.5618
▁ladder	-10.5618
▁mathematic	-10.5618
▁oracle	-10.5618
▁organism	-10.5618
▁overflow	-10.5618
▁rhyme	-10.5618
▁serpent	-10.5618
▁victim	-10.5618
offensive	-10.5618
teenth	-10.5618
xious	-10.5618
▁SUCH	-10.5618
▁aloft	-10.5618
▁aversion	-10.5618
▁company	-10.5618
▁description	-10.5618
▁detail	-10.5618
▁expend	-10.5618
▁fault	-10.5618
▁hunger	-10.5618
▁injustice	-10.5618
▁money	-10.5618
▁remove	-10.5618
▁street	-10.5618
▁third	-10.5618
▁Byron	-10.5618
▁HIMSELF	-10.5618
HOMME	-10.5618
▁hesitate	-10.5618
▁Platonic	-10.5618
▁convenient	-10.5618
▁invariabl	-10.5618
▁leaves	-10.5618
▁pangs	-10.5618
▁recall	-10.5618
▁sitting	-10.5618
▁venerat	-10.5618
▁violence	-10.5618
▁conjur	-10.5618
▁glorifie	-10.5618
▁perish	-10.5618
▁vehemen	-10.5618
upwards	-10.5618
▁fatal	-10.5618
▁negation	-10.5618
▁recur	-10.5618
▁weapon	-10.5618
▁shine	-10.5618
▁grey	-10.5618
▁incentive	-10.5618
▁impels	-10.5618
▁promote	-10.5618
▁snare	-10.5618
▁lift	-10.5618
▁identi	-10.5618
▁weakening	-10.5618
▁arrangements	-10.5618
▁portal	-10.5618
▁horse	-10.5618
▁lapse	-10.5618
▁season	-10.5619
▁Frederick	-10.5619
▁foremost	-10.5619
doctor	-10.5619
▁predisposition	-10.5619
▁tolerance	-10.5619
▁improbab	-10.5619
▁Italian	-10.5619
ibus	-10.5619
▁surplus	-10.5619
▁alleviat	-10.5619
▁knife	-10.5619
▁wilful	-10.5619
▁injuring	-10.5619
▁stalk	-10.5619
▁borrow	-10.5619
▁disintegrati	-10.5619
▁plu	-10.5619
▁rude	-10.5619
▁blunder	-10.5619
▁plausible	-10.5619
▁excitement	-10.5619
▁safety	-10.5619
▁feature	-10.5619
▁woe	-10.5619
suitable	-10.5619
▁nay	-10.5619
▁compel	-10.5619
▁degenerating	-10.5619
▁attenuat	-10.5619
▁conceited	-10.5619
▁occup	-10.5619
▁presumption	-10.5619
▁attribut	-10.5619
▁speech	-10.5619
▁oppression	-10.5619
▁akin	-10.562
▁drag	-10.562
▁linger	-10.562
▁COMP	-10.562
▁defined	-10.562
iety	-10.562
▁writings	-10.562
▁Dinge	-10.562
▁mild	-10.562
▁tenaci	-10.562
▁consensus	-10.562
▁submit	-10.562
▁sinful	-10.562
▁entertainment	-10.562
▁united	-10.5621
▁desert	-10.5621
teleolog	-10.5621
▁losing	-10.5621
distasteful	-10.5621
▁exhaustion	-10.5621
▁drop	-10.5621
tune	-10.5621
contradictory	-10.5621
▁atavism	-10.5621
UIRE	-10.5621
Semit	-10.5621
▁gold	-10.5621
▁harmless	-10.5622
▁vivisection	-10.5622
▁Life	-10.5622
▁blow	-10.5622
▁water	-10.5622
▁charit	-10.5622
▁tyrannize	-10.5622
▁dependent	-10.5622
▁enthusiastic	-10.5622
▁causation	-10.5623
▁pressure	-10.5623
▁wonderful	-10.5623
▁incurable	-10.5623
▁outbreak	-10.5623
▁REAL	-10.5623
▁imitation	-10.5624
▁reverent	-10.5624
▁keenest	-10.5624
▁honorable	-10.5625
▁falsified	-10.5625
▁devilry	-10.5625
▁habituat	-10.5625
ICAL	-10.5625
▁priori	-10.5625
▁derive	-10.5625
▁tire	-10.5625
▁preferred	-10.5625
▁cook	-10.5626
▁embrace	-10.5626
▁peaceful	-10.5626
▁loftier	-10.5627
▁Athenian	-10.5627
▁WHO	-10.5627
▁validity	-10.5627
▁domination	-10.5627
▁fight	-10.5627
▁Have	-10.5627
▁hang	-10.5628
▁flourishes	-10.5628
▁fever	-10.5628
▁inside	-10.5629
▁cool	-10.5629
▁exert	-10.563
▁fitness	-10.563
▁boldness	-10.563
preserving	-10.563
▁malady	-10.563
▁elsewhere	-10.5631
accessible	-10.5631
▁seven	-10.5632
ISM	-10.5633
▁temper	-10.5633
▁advancement	-10.5634
▁sincere	-10.5635
▁included	-10.5635
▁prized	-10.5635
▁verse	-10.5635
presentiment	-10.5636
▁homin	-10.5637
▁Occasionally	-10.5638
▁abnegation	-10.5638
▁conceivable	-10.5638
▁confidence	-10.5638
▁deliverance	-10.5638
▁incarnate	-10.5638
▁study	-10.5638
▁supposition	-10.5638
▁sustain	-10.5638
▁dead	-10.564
▁justified	-10.5642
▁shattering	-10.5642
▁courageous	-10.5643
▁corresponding	-10.5643
▁err	-10.5643
▁somebody	-10.5644
▁adopted	-10.5644
▁bestowed	-10.5644
▁soft	-10.5644
▁eagerness	-10.5644
▁witness	-10.5644
mony	-10.5645
▁extended	-10.5645
▁truthfulness	-10.5646
▁superficiality	-10.5647
▁inscribe	-10.5648
UST	-10.5649
▁egoist	-10.5649
▁pour	-10.5649
▁letting	-10.565
▁emotional	-10.565
▁warm	-10.565
▁repute	-10.5651
▁immorality	-10.5651
▁somewhere	-10.5652
COUNT	-10.5652
▁tempter	-10.5653
▁relative	-10.5653
initiate	-10.5654
▁concealment	-10.5654
VOI	-10.5655
▁lest	-10.5656
▁calculat	-10.5656
▁investigator	-10.5656
▁physiolog	-10.5656
▁conceived	-10.5657
▁everybody	-10.5658
▁anywhere	-10.5658
▁observed	-10.5658
▁country	-10.5658
▁narrowness	-10.5659
▁digest	-10.5659
▁translate	-10.5659
▁aye	-10.566
▁impatiently	-10.5661
▁practically	-10.5661
▁vigorously	-10.5661
▁confounded	-10.5661
EDUC	-10.5661
▁main	-10.5662
▁pushed	-10.5664
▁contradiction	-10.5666
▁possesses	-10.5667
▁fearless	-10.5669
▁bond	-10.5669
▁asceticism	-10.5669
lways	-10.5669
Mensch	-10.567
▁Moreover	-10.5672
▁discretion	-10.5672
▁intelligible	-10.5672
▁seemingly	-10.5673
▁imperfectly	-10.5673
▁won	-10.5675
OT	-10.5677
▁assigned	-10.5678
STRON	-10.5679
CES	-10.5679
▁diseased	-10.568
▁disturbing	-10.5681
▁fable	-10.5682
authorized	-10.5685
indulge	-10.5687
▁rarer	-10.5689
▁destroying	-10.569
▁aroused	-10.5691
happiness	-10.5693
▁astrology	-10.5694
ATH	-10.5694
opera	-10.5694
▁imitate	-10.5695
tional	-10.5695
▁strictly	-10.5697
▁modesty	-10.5697
▁incalculable	-10.5698
▁traveler	-10.5698
▁indicated	-10.57
▁ascribed	-10.5701
▁flash	-10.5701
▁reared	-10.5703
▁lying	-10.5705
▁accidental	-10.5707
▁spread	-10.5707
▁valuable	-10.5708
▁indifferently	-10.5709
▁dogmatists	-10.5713
▁pupils	-10.5713
esuits	-10.5713
▁extends	-10.5713
▁corresponds	-10.5713
▁Certainly	-10.5715
▁exhausted	-10.5717
▁objection	-10.5718
nel	-10.572
▁trying	-10.5722
being	-10.5722
▁powerless	-10.5725
▁constituted	-10.5725
▁deity	-10.5725
cus	-10.5725
adequately	-10.5728
▁esteemed	-10.5729
▁definitely	-10.5733
▁usage	-10.574
▁Stoics	-10.5742
▁vow	-10.5743
▁punished	-10.5746
▁She	-10.5753
▁trace	-10.5759
▁preached	-10.5761
▁bite	-10.5763
▁degenerate	-10.5766
▁creation	-10.5768
▁reasonable	-10.5772
▁fictions	-10.5775
▁weary	-10.5775
▁destined	-10.5779
▁moved	-10.5781
▁developing	-10.5791
▁wrongly	-10.5794
▁critical	-10.5796
Bible	-10.5803
▁lighter	-10.5806
▁AC	-10.5813
▁hoped	-10.5821
▁charming	-10.5822
troublesome	-10.5823
bove	-10.5825
sensus	-10.5833
▁fashioned	-10.5835
▁GO	-10.5837
▁obligations	-10.5841
arb	-10.5849
▁possessed	-10.5853
▁US	-10.5856
causa	-10.5858
▁bore	-10.5858
▁prevailing	-10.5868
▁praised	-10.5883
Asiatic	-10.5893
VER	-10.5895
▁entails	-10.59
▁sentences	-10.59
▁depends	-10.59
▁mistakes	-10.59
▁door	-10.5901
willed	-10.5904
worthiness	-10.5905
▁bent	-10.5908
▁doors	-10.5911
▁barbarian	-10.5913
▁teachers	-10.5914
▁kn	-10.5915
▁tranquil	-10.5917
▁soar	-10.5934
▁ruled	-10.5952
light	-10.5955
▁ki	-10.5961
▁strongly	-10.5968
▁nu	-10.5989
▁learning	-10.5991
▁repudiate	-10.5994
▁sting	-10.5994
▁thereto	-10.5994
▁VE	-10.5999
▁ruler	-10.601
▁shed	-10.6036
▁dreaming	-10.6039
▁falsely	-10.6042
▁appearing	-10.6056
▁strain	-10.606
▁inference	-10.6062
lib	-10.6069
Sac	-10.6088
shape	-10.6093
Some	-10.6094
rote	-10.6097
▁unfavourabl	-10.6107
▁serv	-10.6109
HE	-10.615
tribu	-10.6175
▁met	-10.6177
▁systemati	-10.6179
▁ascribe	-10.6181
▁app	-10.6181
▁prop	-10.6197
eek	-10.6223
▁operat	-10.6235
ubstitute	-10.6237
▁Emp	-10.6255
▁star	-10.6256
referred	-10.6282
love	-10.6283
▁pervers	-10.6294
point	-10.6309
LAC	-10.6329
▁sublim	-10.6335
rot	-10.6352
▁CAUS	-10.638
kill	-10.6386
▁leader	-10.6413
Much	-10.6423
gar	-10.6439
▁defi	-10.6439
ley	-10.6446
ELL	-10.6452
▁mu	-10.6474
tically	-10.6497
▁introduce	-10.6507
rearing	-10.6509
seeking	-10.6516
idleness	-10.6517
atory	-10.6559
getting	-10.6577
▁passe	-10.6615
tig	-10.662
flying	-10.6684
▁reminde	-10.6814
OLI	-10.6816
▁philosophiz	-10.6841
ISH	-10.6958
toicism	-10.6971
▁alleg	-10.6995
ization	-10.7012
▁palpabl	-10.7031
▁Puritan	-10.7079
Yes	-10.7095
▁DO	-10.7137
▁artful	-10.7175
▁Na	-10.7186
ariness	-10.7187
LA	-10.7335
MY	-10.7359
sided	-10.7365
▁caus	-10.7377
ft	-10.7415
▁guid	-10.7426
lement	-10.7432
▁notice	-10.7452
NAL	-10.7467
evidently	-10.7564
▁philosophize	-10.7577
anim	-10.7598
rung	-10.76
Ah	-10.7663
eak	-10.7665
▁impr	-10.771
▁furnishe	-10.7744
mous	-10.78
here	-10.7871
▁pa	-10.7877
esse	-10.7951
rel	-10.7954
▁sat	-10.7972
▁withdraw	-10.7973
[2	-10.8001
▁tac	-10.8038
seemly	-10.8082
lk	-10.8097
adic	-10.8109
reading	-10.8132
▁ascrib	-10.8147
stitute	-10.8147
aff	-10.8155
belief	-10.8188
▁demon	-10.821
▁shap	-10.8328
hough	-10.8341
▁Wa	-10.8418
▁gl	-10.8467
mission	-10.8479
aller	-10.8487
2]	-10.8493
▁trans	-10.851
deteriorated	-10.8522
itiv	-10.8589
▁era	-10.8628
arable	-10.8641
aced	-10.867
nations	-10.8682
gli	-10.8697
▁fiction	-10.8738
▁tear	-10.8744
IND	-10.8749
▁emerge	-10.8778
rangement	-10.8781
herent	-10.8784
iat	-10.8798
structive	-10.88
calculate	-10.8802
▁bit	-10.8806
gris	-10.8814
▁obscur	-10.8815
▁appropriat	-10.8815
conscious	-10.8825
from	-10.8828
exhausted	-10.8829
spread	-10.8829
valuable	-10.8829
creation	-10.8829
pleasant	-10.8833
national	-10.8834
equality	-10.8834
reflect	-10.8835
MORAL	-10.8836
sickness	-10.8836
denial	-10.8836
direct	-10.8837
explained	-10.8837
destruction	-10.8837
unegoistic	-10.8838
▁imitat	-10.8839
appear	-10.8839
Greek	-10.884
friend	-10.884
IFY	-10.884
faculty	-10.884
play	-10.884
otherwise	-10.884
beyond	-10.8841
▁EUROPE	-10.8841
living	-10.8841
responsibility	-10.8841
From	-10.8841
pain	-10.8842
common	-10.8842
European	-10.8842
Thus	-10.8842
understand	-10.8842
consequently	-10.8842
sacrifice	-10.8842
history	-10.8842
small	-10.8843
philosopher	-10.8843
feeling	-10.8843
civilization	-10.8843
ground	-10.8843
power	-10.8843
first	-10.8843
through	-10.8843
general	-10.8844
either	-10.8844
nowadays	-10.8845
Christianity	-10.8848
nothing	-10.8849
whether	-10.8849
Hence	-10.8851
Even	-10.8852
people	-10.8853
▁requir	-10.8856
inspiration	-10.886
almost	-10.8863
▁occur	-10.8865
▁constrain	-10.8866
greatness	-10.887
problem	-10.8871
▁testi	-10.8872
▁investigat	-10.8877
▁rend	-10.8878
▁honor	-10.8881
Our	-10.8888
▁affect	-10.889
▁confound	-10.8893
▁bold	-10.8895
▁wander	-10.8895
digesti	-10.8895
also	-10.8897
developed	-10.8897
▁invert	-10.8898
Not	-10.8902
does	-10.8905
▁unwilling	-10.8908
▁virtu	-10.8908
▁concede	-10.8911
▁unconditional	-10.8911
retofore	-10.8911
dious	-10.8915
▁exact	-10.8916
alysis	-10.8916
erner	-10.8919
kling	-10.8919
▁boundless	-10.8922
terior	-10.8925
▁divers	-10.8925
▁bir	-10.8928
▁laborious	-10.8934
roves	-10.8937
▁commenc	-10.8938
▁flourish	-10.8938
▁Chin	-10.8938
tial	-10.894
▁spoke	-10.894
▁PHILOSOPHER	-10.8941
may	-10.8942
▁explo	-10.8942
▁prior	-10.8942
▁astonish	-10.8946
▁marvel	-10.8947
▁harm	-10.8947
▁senti	-10.8948
odern	-10.8948
neral	-10.8948
ersonal	-10.8949
charge	-10.8949
▁clim	-10.895
writing	-10.895
▁VIRTU	-10.895
▁craft	-10.895
▁rhetoric	-10.895
istrust	-10.895
▁defect	-10.8951
spection	-10.8951
▁affirm	-10.8951
udge	-10.8951
▁ABO	-10.8951
reckon	-10.8951
transfigur	-10.8952
▁CONTRA	-10.8952
▁FUN	-10.8952
▁DESIR	-10.8952
▁HIGH	-10.8952
▁NOBLE	-10.8952
▁World	-10.8952
▁disillusion	-10.8952
▁displeas	-10.8952
▁perplex	-10.8952
▁portrait	-10.8952
▁virgin	-10.8952
ATIONS	-10.8952
Freedom	-10.8952
GHT	-10.8952
Rangordnung	-10.8952
Salvation	-10.8952
Tartuffery	-10.8952
accuracy	-10.8952
catcher	-10.8952
construct	-10.8952
crowd	-10.8952
dazzle	-10.8952
ensnaring	-10.8952
neglect	-10.8952
neighbor	-10.8952
ocles	-10.8952
pantomime	-10.8952
plenitude	-10.8952
pursue	-10.8952
responsibilities	-10.8952
ridicule	-10.8952
transitory	-10.8952
▁Apparently	-10.8952
▁August	-10.8952
▁Brahmin	-10.8952
▁CONCEAL	-10.8952
▁Caesar	-10.8952
▁Consequently	-10.8952
▁Equally	-10.8952
▁Friends	-10.8952
▁Greece	-10.8952
▁INSTINCT	-10.8952
▁ITSELF	-10.8952
▁MASTER	-10.8952
▁MUCH	-10.8952
▁Mankind	-10.8952
▁Meanwhile	-10.8952
▁PHYSI	-10.8952
▁Probably	-10.8952
▁Protestant	-10.8952
▁RIGHT	-10.8952
▁Rousseau	-10.8952
▁SUFFER	-10.8952
▁SUFFIC	-10.8952
▁Sphinx	-10.8952
▁abject	-10.8952
▁alarming	-10.8952
▁aloud	-10.8952
▁alternately	-10.8952
▁altitude	-10.8952
▁anchorite	-10.8952
▁antidote	-10.8952
▁belittl	-10.8952
▁benefic	-10.8952
▁bids	-10.8952
▁blossom	-10.8952
▁brutaliz	-10.8952
▁bunglers	-10.8952
▁caution	-10.8952
▁ceremonious	-10.8952
▁cognizance	-10.8952
▁complaisant	-10.8952
▁comrades	-10.8952
▁confiding	-10.8952
▁confront	-10.8952
▁conjectur	-10.8952
▁conservative	-10.8952
▁conspicuous	-10.8952
▁convince	-10.8952
▁cowardly	-10.8952
▁crucif	-10.8952
▁deceptive	-10.8952
▁declaration	-10.8952
▁defensive	-10.8952
▁demonstration	-10.8952
▁depreciate	-10.8952
▁descend	-10.8952
▁devou	-10.8952
▁diligen	-10.8952
▁dissolution	-10.8952
▁distraction	-10.8952
▁elegan	-10.8952
▁emaciated	-10.8952
▁emphatic	-10.8952
▁encourage	-10.8952
▁enforce	-10.8952
▁engender	-10.8952
▁enterprise	-10.8952
▁equivalent	-10.8952
▁evasion	-10.8952
▁everlasting	-10.8952
▁exaltation	-10.8952
▁extinguish	-10.8952
▁exuberance	-10.8952
▁exuberant	-10.8952
▁fanatics	-10.8952
▁feast	-10.8952
▁genesis	-10.8952
▁grief	-10.8952
▁grimace	-10.8952
▁halcyon	-10.8952
▁hereafter	-10.8952
▁hostility	-10.8952
▁humour	-10.8952
▁hypocrisy	-10.8952
▁ignorant	-10.8952
▁immemorial	-10.8952
▁implicit	-10.8952
▁inconsiderate	-10.8952
▁incredible	-10.8952
▁indescribabl	-10.8952
▁industry	-10.8952
▁inheritance	-10.8952
▁insolence	-10.8952
▁intermedia	-10.8952
▁intolerable	-10.8952
▁invalid	-10.8952
▁invisible	-10.8952
▁irresistibl	-10.8952
▁malice	-10.8952
▁marriage	-10.8952
▁masquerade	-10.8952
▁mechanism	-10.8952
▁metaphor	-10.8952
▁millenniums	-10.8952
▁monster	-10.8952
▁mysteries	-10.8952
▁nineteenth	-10.8952
▁offends	-10.8952
▁overturn	-10.8952
▁overwhelm	-10.8952
▁penitentia	-10.8952
▁permanent	-10.8952
▁physicists	-10.8952
▁policy	-10.8952
▁precaution	-10.8952
▁prerogative	-10.8952
▁prescribed	-10.8952
▁prevalent	-10.8952
▁prince	-10.8952
▁refuge	-10.8952
▁regret	-10.8952
▁relapse	-10.8952
▁remorse	-10.8952
▁requite	-10.8952
▁rigour	-10.8952
▁ruthless	-10.8952
▁sacrileg	-10.8952
▁sagacity	-10.8952
▁scheme	-10.8952
▁seduce	-10.8952
▁sensuality	-10.8952
▁shift	-10.8952
▁shudder	-10.8952
▁slumber	-10.8952
▁smooth	-10.8952
▁soldier	-10.8952
▁strenuous	-10.8952
▁stretch	-10.8952
▁succumb	-10.8952
▁suffocate	-10.8952
▁swamp	-10.8952
▁syllable	-10.8952
▁tendencies	-10.8952
▁tentative	-10.8952
▁thread	-10.8952
▁threshold	-10.8952
▁touchstone	-10.8952
▁traits	-10.8952
▁transmitted	-10.8952
▁twice	-10.8952
▁twilight	-10.8952
▁unassuming	-10.8952
▁uncanny	-10.8952
▁unethical	-10.8952
▁uprightness	-10.8952
▁veiled	-10.8952
▁venerable	-10.8952
▁vicissitudes	-10.8952
CHRISTIAN	-10.8952
▁Darwin	-10.8952
▁Descartes	-10.8952
▁Enough	-10.8952
▁Mozart	-10.8952
▁accomplish	-10.8952
▁acquaint	-10.8952
▁benefact	-10.8952
▁built	-10.8952
▁dawn	-10.8952
▁melanchol	-10.8952
▁naked	-10.8952
▁perturb	-10.8952
▁repugnan	-10.8952
▁requital	-10.8952
▁restorative	-10.8952
▁surmounted	-10.8952
▁twent	-10.8952
▁unprejudiced	-10.8952
IALLY	-10.8952
Progress	-10.8952
dancing	-10.8952
faculties	-10.8952
▁Strong	-10.8952
▁carrie	-10.8952
▁comprised	-10.8952
▁detach	-10.8952
▁diffiden	-10.8952
▁driven	-10.8952
▁filth	-10.8952
▁fritter	-10.8952
▁impruden	-10.8952
▁jealous	-10.8952
EVIL	-10.8952
▁Circe	-10.8952
▁Locke	-10.8952
▁approval	-10.8952
▁ceremon	-10.8952
▁dishono	-10.8952
▁dispute	-10.8952
▁girl	-10.8952
▁guiltlessness	-10.8952
▁impatience	-10.8952
▁lips	-10.8952
▁settled	-10.8952
▁tremor	-10.8952
OCO	-10.8952
UNE	-10.8952
▁glory	-10.8952
▁puzzl	-10.8952
▁reluctan	-10.8952
▁varying	-10.8952
adjustment	-10.8952
anticipat	-10.8952
▁HAS	-10.8952
▁barren	-10.8952
▁decree	-10.8952
▁fantas	-10.8952
▁imposing	-10.8952
▁ponderous	-10.8952
▁religiosi	-10.8952
▁undertake	-10.8952
Victor	-10.8952
▁front	-10.8952
▁THERE	-10.8952
▁decade	-10.8952
▁thorn	-10.8952
▁title	-10.8952
ponent	-10.8952
▁ESSEN	-10.8952
▁choice	-10.8952
▁ornament	-10.8952
▁amiable	-10.8952
hospitality	-10.8952
▁apprehension	-10.8952
▁atomism	-10.8952
▁comprehensible	-10.8952
▁wilderness	-10.8952
▁YOUR	-10.8952
▁neutrali	-10.8952
authoritative	-10.8952
stantial	-10.8952
▁SUI	-10.8952
▁denies	-10.8952
▁protest	-10.8952
▁selfishness	-10.8952
visionaries	-10.8952
▁desirabilit	-10.8952
▁domineer	-10.8952
▁exceedingly	-10.8952
▁quiet	-10.8952
▁roam	-10.8952
▁apostle	-10.8952
▁fell	-10.8952
▁sang	-10.8952
▁stipulat	-10.8952
▁Pole	-10.8952
▁damp	-10.8952
▁incense	-10.8952
▁translation	-10.8952
▁truly	-10.8952
▁aetern	-10.8952
▁imaginative	-10.8952
Presum	-10.8952
▁atten	-10.8952
▁avail	-10.8952
▁vesti	-10.8952
▁exult	-10.8952
▁anarchist	-10.8952
Shame	-10.8952
▁PAS	-10.8952
▁scale	-10.8952
▁banner	-10.8952
▁seize	-10.8952
▁Welt	-10.8952
▁section	-10.8952
▁onward	-10.8952
▁retrospect	-10.8952
▁aggr	-10.8952
▁cosm	-10.8952
▁sheep	-10.8952
GRAD	-10.8952
▁affinit	-10.8952
ULT	-10.8952
▁Very	-10.8952
▁contend	-10.8952
▁exquisite	-10.8952
Think	-10.8952
▁cultivated	-10.8952
▁phase	-10.8952
▁warning	-10.8952
frog	-10.8952
▁communities	-10.8952
▁lord	-10.8952
▁outset	-10.8952
Punish	-10.8952
▁military	-10.8952
▁revolution	-10.8952
▁prophet	-10.8952
▁centre	-10.8952
▁belated	-10.8952
▁surpass	-10.8952
▁wealth	-10.8952
ducing	-10.8952
▁aptitude	-10.8952
▁isolation	-10.8952
▁upset	-10.8952
gross	-10.8952
▁salt	-10.8952
▁visit	-10.8952
▁fascinating	-10.8952
Error	-10.8952
▁nook	-10.8952
▁reckoned	-10.8952
▁beware	-10.8952
▁WAIT	-10.8952
▁martyr	-10.8952
Vanity	-10.8952
▁frau	-10.8952
▁DANGER	-10.8952
▁alliance	-10.8952
▁intens	-10.8952
▁obtrusive	-10.8952
▁interrogative	-10.8953
▁monstrosities	-10.8953
▁preferences	-10.8953
▁gather	-10.8953
ield	-10.8953
▁painters	-10.8953
▁lightning	-10.8953
▁mischief	-10.8953
▁disposing	-10.8953
▁gratifi	-10.8953
vigor	-10.8953
Self	-10.8953
▁ambiguous	-10.8953
▁happiest	-10.8953
▁impersonal	-10.8953
▁unfair	-10.8953
OLOGICAL	-10.8953
▁SOUL	-10.8953
▁Act	-10.8953
sworn	-10.8953
▁dorm	-10.8953
▁assimilation	-10.8953
▁intimidation	-10.8953
▁profession	-10.8953
▁counterpart	-10.8953
▁pluck	-10.8953
▁compelled	-10.8954
▁court	-10.8954
▁festival	-10.8954
▁bible	-10.8954
▁devised	-10.8954
▁importun	-10.8954
▁field	-10.8954
intoxicated	-10.8954
▁DOWN	-10.8954
▁disbelief	-10.8954
esuitism	-10.8954
▁sublimated	-10.8954
MOS	-10.8954
▁HISTOR	-10.8954
▁blunt	-10.8954
TRO	-10.8954
▁malign	-10.8954
▁Those	-10.8954
afflict	-10.8954
▁visionary	-10.8954
▁ostentation	-10.8954
▁gener	-10.8955
▁bondage	-10.8955
conserve	-10.8955
uised	-10.8955
▁paid	-10.8955
▁prostrat	-10.8955
▁mor	-10.8955
▁offerings	-10.8955
▁loose	-10.8955
▁conven	-10.8955
Paul	-10.8955
▁dissecti	-10.8955
▁OVER	-10.8955
▁indulgence	-10.8955
▁atheism	-10.8955
▁barbarous	-10.8955
▁discourse	-10.8955
▁chaos	-10.8956
▁compresse	-10.8956
raging	-10.8956
▁plung	-10.8956
UM	-10.8956
▁chill	-10.8956
▁tough	-10.8956
▁wife	-10.8956
▁dress	-10.8956
▁boundary	-10.8956
▁agitation	-10.8956
▁chemist	-10.8956
▁fem	-10.8957
▁bright	-10.8957
▁devilish	-10.8957
▁admitted	-10.8957
▁HAV	-10.8957
▁astonishment	-10.8957
UAND	-10.8957
▁excellent	-10.8957
ignity	-10.8957
▁Muss	-10.8957
▁clair	-10.8957
▁Oriental	-10.8957
▁clu	-10.8957
▁positive	-10.8957
▁patriotic	-10.8958
earance	-10.8958
herd	-10.8958
▁MEAN	-10.8958
▁supernatural	-10.8958
▁compulsory	-10.8958
▁multiplicity	-10.8958
▁solitary	-10.8958
▁Go	-10.8958
▁pace	-10.8958
▁tie	-10.8959
▁Later	-10.8959
▁plaything	-10.8959
▁eff	-10.8959
▁attractive	-10.8959
▁lands	-10.8959
▁birdlike	-10.8959
arrow	-10.8959
▁unsc	-10.8959
EAR	-10.896
▁unlearn	-10.896
▁plane	-10.896
guess	-10.896
soever	-10.8961
▁declared	-10.8961
▁degraded	-10.8961
▁incorporated	-10.8961
ocratic	-10.8961
▁stake	-10.8961
▁Paris	-10.8961
placing	-10.8961
▁happily	-10.8961
▁acuteness	-10.8962
▁astuteness	-10.8962
▁harshness	-10.8962
▁card	-10.8962
▁PHILOSOPHERS	-10.8963
▁modifi	-10.8963
▁golden	-10.8963
▁Old	-10.8963
▁icy	-10.8963
▁apt	-10.8963
▁revel	-10.8964
▁partial	-10.8964
▁utilitarianism	-10.8964
▁uncertainty	-10.8964
▁counterfeiting	-10.8965
▁sunk	-10.8965
▁measurement	-10.8965
THY	-10.8965
Lessing	-10.8965
▁complicated	-10.8965
▁accumulated	-10.8965
▁utterance	-10.8965
▁China	-10.8966
▁brilliant	-10.8966
▁prominent	-10.8966
▁commences	-10.8966
▁ice	-10.8966
▁pry	-10.8966
Pain	-10.8966
▁respectability	-10.8966
ilities	-10.8967
▁examine	-10.8967
NTAT	-10.8968
▁plebeianism	-10.8968
▁slightest	-10.8968
room	-10.8968
▁permissi	-10.8968
▁ALL	-10.8969
▁selection	-10.8969
▁fallen	-10.8969
▁laboriousness	-10.8969
▁temporary	-10.8969
▁Schopenhauerian	-10.8969
▁Russian	-10.897
journ	-10.897
▁stee	-10.897
▁inexorable	-10.897
▁arisen	-10.897
ATO	-10.8971
pates	-10.8971
▁However	-10.8971
Werth	-10.8972
▁lone	-10.8972
▁doses	-10.8973
▁interpreters	-10.8973
▁agreement	-10.8973
▁investigation	-10.8974
▁scent	-10.8974
▁dung	-10.8975
▁pose	-10.8975
▁perfection	-10.8976
▁motleyness	-10.8976
exclusive	-10.8976
▁therefrom	-10.8976
▁concluded	-10.8976
▁surprised	-10.8976
▁raised	-10.8977
▁contest	-10.8977
▁persistently	-10.8978
▁previously	-10.8978
▁occurr	-10.898
▁dislike	-10.898
▁operation	-10.8981
FO	-10.8981
▁lifetime	-10.8981
AMENT	-10.8982
▁diverse	-10.8983
▁cheerfulness	-10.8983
IENT	-10.8983
▁PR	-10.8984
▁ugl	-10.8984
▁restraint	-10.8984
▁richest	-10.8985
rmy	-10.8985
▁mingling	-10.8987
INESS	-10.8988
▁combination	-10.8988
▁weaknesses	-10.8988
▁shameless	-10.8988
▁pay	-10.8989
▁participated	-10.8989
▁bitterness	-10.899
ANTS	-10.899
▁sleeper	-10.899
▁Com	-10.8991
▁conceded	-10.8992
tles	-10.8993
▁approve	-10.8995
▁unwillingly	-10.8996
▁boundlessly	-10.8996
▁boldly	-10.8996
▁advantageous	-10.8997
TOWARDS	-10.8997
▁somehow	-10.8998
▁ram	-10.8998
violen	-10.8999
range	-10.8999
▁store	-10.9
▁NE	-10.9001
▁intimate	-10.9004
▁mud	-10.9006
▁Itself	-10.9006
▁useless	-10.9008
▁73	-10.9008
▁flit	-10.9008
▁restless	-10.9009
▁apply	-10.9009
▁65	-10.9012
▁YE	-10.9013
▁tones	-10.9013
▁dictate	-10.9013
▁hypocrite	-10.9013
▁honored	-10.9014
▁affected	-10.9014
▁constrained	-10.9014
▁inverted	-10.9014
▁occurred	-10.9015
▁54	-10.9015
▁model	-10.9015
▁sympathiz	-10.9016
▁station	-10.9017
▁coldness	-10.9017
▁blindness	-10.9017
▁expresses	-10.9018
▁136	-10.9023
recogniz	-10.9023
▁sage	-10.9026
▁stable	-10.9027
acy	-10.9028
▁hesitatingly	-10.9031
▁clearness	-10.9032
▁sentimental	-10.9032
▁unities	-10.9034
▁spiritualis	-10.9034
▁fit	-10.9034
▁guilty	-10.9037
real	-10.9038
▁active	-10.9038
▁curse	-10.9039
▁wandering	-10.9039
▁parties	-10.9039
unphilosophical	-10.9046
▁philosophie	-10.9048
▁dry	-10.9048
▁calculated	-10.905
▁thy	-10.9051
spirations	-10.9055
▁grade	-10.906
▁truthful	-10.906
▁geniuses	-10.9061
▁succession	-10.9062
petition	-10.9062
▁EUROPEAN	-10.9064
wether	-10.9066
elling	-10.9066
ION	-10.9068
▁SY	-10.9068
▁closer	-10.9068
▁bal	-10.907
mina	-10.9076
▁educating	-10.9078
▁188	-10.9083
▁hy	-10.9084
▁ray	-10.9088
mposed	-10.9089
cies	-10.909
▁wave	-10.909
wollen	-10.9096
inevitable	-10.9103
▁steep	-10.9104
LL	-10.9105
▁asses	-10.9108
pane	-10.9109
ker	-10.9109
mixture	-10.9117
▁band	-10.9121
▁specialist	-10.9121
▁list	-10.9124
laube	-10.9126
MS	-10.9133
▁vulgariz	-10.9134
writers	-10.919
▁perm	-10.9191
spiritualization	-10.9202
decked	-10.9206
dominant	-10.9224
▁unconquer	-10.9274
▁stimulat	-10.9282
▁miser	-10.9282
▁irritat	-10.9289
overcoming	-10.9299
▁admissi	-10.9302
▁anima	-10.9308
verb	-10.9323
park	-10.9325
▁ennobl	-10.9334
▁len	-10.9349
big	-10.9354
▁wage	-10.9363
▁deteriorate	-10.94
▁flower	-10.9408
▁transvalu	-10.9417
recovery	-10.9436
▁sco	-10.9494
tique	-10.9501
mulation	-10.9503
rry	-10.9535
▁formation	-10.9567
SUS	-10.9568
specialty	-10.957
▁gall	-10.9581
eady	-10.9585
ANCE	-10.9587
chet	-10.9617
▁Er	-10.9645
▁youthful	-10.9652
subjugation	-10.9671
▁practi	-10.9673
did	-10.9687
▁Har	-10.9716
etical	-10.9747
▁Ni	-10.9776
▁tact	-10.9817
RRO	-10.9819
mentioned	-10.9889
VA	-10.9944
▁Ascetic	-10.9959
heirs	-10.9965
▁lea	-10.9983
▁revengeful	-11.0074
adow	-11.0168
emancipat	-11.0236
ob	-11.0274
▁furnish	-11.0323
▁bother	-11.0394
tile	-11.0577
▁CONSE	-11.0631
icious	-11.0652
▁GR	-11.0703
▁plat	-11.0741
▁COMM	-11.075
▁imparti	-11.0752
peaceable	-11.0753
INT	-11.0758
fliction	-11.0763
fortunately	-11.0848
▁comple	-11.0852
schei	-11.0887
ardi	-11.0918
tho	-11.0987
uda	-11.0998
met	-11.1014
rtured	-11.1052
disturbed	-11.1063
questionableness	-11.1117
▁patriot	-11.1136
▁costume	-11.1151
▁Stoic	-11.1202
IDD	-11.1292
palpable	-11.1334
fected	-11.1402
thus	-11.1533
▁unchang	-11.1576
▁CONS	-11.1693
unclean	-11.1712
▁conform	-11.1964
▁orator	-11.2097
egation	-11.2137
▁idle	-11.2163
▁worthies	-11.218
▁SHA	-11.2185
▁ski	-11.2213
55	-11.2222
amme	-11.2255
ranc	-11.2387
AUSE	-11.2408
▁craz	-11.2491
perfectly	-11.2556
rack	-11.2569
IMA	-11.2579
qualifi	-11.2598
▁capti	-11.2675
practis	-11.2863
CIE	-11.2948
far	-11.3003
imidity	-11.3072
▁sensuous	-11.3097
▁mob	-11.32
coming	-11.3232
abo	-11.3271
omme	-11.3274
14	-11.3331
deserved	-11.3412
favourably	-11.342
▁stimul	-11.3434
dicated	-11.3468
▁loftie	-11.3494
▁unhapp	-11.3544
▁philosoph	-11.3546
▁regulati	-11.3596
ANI	-11.3609
▁degenera	-11.3622
▁cur	-11.3649
lieve	-11.3651
▁appreciati	-11.3674
▁extend	-11.3681
▁correspond	-11.3684
▁inevitab	-11.3709
ollen	-11.3728
▁refer	-11.3731
esuit	-11.3735
cientific	-11.3736
▁figur	-11.374
▁pupil	-11.374
▁dogmatist	-11.374
▁LIVE	-11.3755
▁judg	-11.3772
▁travel	-11.3772
calculable	-11.3773
ulgence	-11.378
hold	-11.3781
strology	-11.3783
▁compet	-11.3784
▁barbar	-11.3785
void	-11.3795
▁sacrific	-11.3795
ncient	-11.3801
dvantage	-11.3801
proved	-11.3812
value	-11.3815
▁STR	-11.3817
high	-11.3827
break	-11.3829
learn	-11.3829
Certainly	-11.383
Moreover	-11.383
discretion	-11.383
fashioned	-11.383
intelligible	-11.3831
mystery	-11.3833
box	-11.3833
Christian	-11.3835
PRES	-11.3835
colour	-11.3835
distress	-11.3835
cross	-11.3835
invent	-11.3836
creature	-11.3837
piece	-11.3837
mortal	-11.3837
Among	-11.3837
paths	-11.3837
cruel	-11.3837
particular	-11.3838
admiration	-11.3838
conviction	-11.3838
family	-11.3838
including	-11.3838
tyranny	-11.3838
distrustful	-11.3838
threatening	-11.3839
superstition	-11.3839
grace	-11.3839
stupid	-11.3839
Finally	-11.3839
You	-11.3839
close	-11.3839
merit	-11.384
honesty	-11.384
education	-11.384
rightly	-11.384
Where	-11.384
making	-11.3841
connection	-11.3841
children	-11.3841
contempt	-11.3841
felt	-11.3841
born	-11.3842
tree	-11.3842
Wagner	-11.3842
Plato	-11.3842
blood	-11.3842
wisdom	-11.3842
half	-11.3842
French	-11.3842
impulse	-11.3842
satisfaction	-11.3842
With	-11.3842
absolute	-11.3842
probably	-11.3843
domain	-11.3843
conception	-11.3843
refined	-11.3843
earth	-11.3843
virtue	-11.3843
true	-11.3844
merely	-11.3844
cannot	-11.3844
super	-11.3844
themselves	-11.3844
makes	-11.3845
fundamental	-11.3845
pass	-11.3846
matter	-11.3847
should	-11.3849
immoral	-11.385
modest	-11.3855
yet	-11.3858
view	-11.386
translat	-11.386
logist	-11.3865
CTIO	-11.3869
WARDS	-11.3877
▁participat	-11.389
▁adopt	-11.3893
▁bestow	-11.3893
▁shatter	-11.3897
▁refin	-11.39
▁push	-11.3901
▁threat	-11.3902
▁mingl	-11.3907
▁grant	-11.3908
▁previous	-11.3908
▁persistent	-11.3909
▁conclude	-11.3911
▁surprise	-11.3911
▁correct	-11.3912
▁sanct	-11.3913
▁frequent	-11.3913
▁include	-11.3913
▁prize	-11.3913
▁persua	-11.3913
selves	-11.3914
▁preserve	-11.3914
▁especial	-11.3914
orrow	-11.3914
▁consequent	-11.3914
aughing	-11.3915
▁prepare	-11.3916
▁involve	-11.3916
▁produce	-11.3917
tempera	-11.3918
▁impuls	-11.3919
▁raise	-11.392
▁inexorabl	-11.3921
▁reput	-11.3922
▁temporar	-11.3923
▁malad	-11.3924
▁terribl	-11.3925
▁simplicit	-11.3925
▁extraordinar	-11.3927
▁capacit	-11.3927
▁brillian	-11.3929
▁prominen	-11.393
rows	-11.3933
▁astute	-11.3934
▁harsh	-11.3934
▁acute	-11.3935
▁Compar	-11.3937
▁impress	-11.3938
elusions	-11.3939
▁India	-11.394
▁phil	-11.3942
▁import	-11.3942
▁Orient	-11.3943
▁etern	-11.3943
historic	-11.3943
▁THI	-11.3944
▁agitat	-11.3944
▁vivisect	-11.3944
eeming	-11.3945
▁atavis	-11.3945
trength	-11.3945
▁preservati	-11.3945
▁democrati	-11.3945
▁auto	-11.3946
▁civiliz	-11.3946
▁Dionys	-11.3946
▁entertain	-11.3947
ACC	-11.3947
▁nourish	-11.3947
▁flo	-11.3947
assure	-11.3947
▁experien	-11.3947
▁Christ	-11.3947
▁differ	-11.3947
▁adorn	-11.3948
▁Buddh	-11.3948
▁chemi	-11.3948
▁communi	-11.3948
observ	-11.3949
OWN	-11.3949
▁SOU	-11.3949
▁befo	-11.3949
▁govern	-11.3949
apacity	-11.3949
atherland	-11.395
▁SUPER	-11.395
egarding	-11.395
▁safe	-11.395
ssential	-11.395
citement	-11.395
▁mediocri	-11.395
▁unfa	-11.395
fresh	-11.395
iscredited	-11.395
tended	-11.395
henomenon	-11.395
ossibility	-11.395
rofound	-11.395
urpose	-11.395
▁christ	-11.395
luck	-11.395
▁idio	-11.395
▁utili	-11.395
IME	-11.3951
rality	-11.3951
▁vent	-11.3951
cultivat	-11.3951
artyr	-11.3951
plus	-11.3951
▁cogni	-11.3951
ROC	-11.3951
accurate	-11.3951
logue	-11.3951
aracter	-11.3951
ptuous	-11.3951
APP	-11.3951
▁apprehen	-11.3951
▁deliberat	-11.3951
▁transcend	-11.3951
ypochondria	-11.3951
ndividual	-11.3952
nterpretation	-11.3952
esire	-11.3952
▁APPR	-11.3952
subst	-11.3952
LICATE	-11.3952
▁PRODU	-11.3952
Objection	-11.3952
ensation	-11.3952
oteric	-11.3952
▁Explanation	-11.3952
▁HOM	-11.3952
▁Suffer	-11.3952
▁VOLU	-11.3952
▁clerk	-11.3952
▁corps	-11.3952
▁disappoint	-11.3952
▁estimating	-11.3952
▁heavily	-11.3952
▁imbecil	-11.3952
▁robbe	-11.3952
Pleasure	-11.3952
Raphael	-11.3952
Translat	-11.3952
agati	-11.3952
firmament	-11.3952
niaiserie	-11.3952
smartness	-11.3952
▁Eventually	-11.3952
▁HIM	-11.3952
▁Hamlet	-11.3952
▁IMMORAL	-11.3952
▁INTENTION	-11.3952
▁POPULA	-11.3952
▁SUPPOS	-11.3952
▁Suicide	-11.3952
▁begloom	-11.3952
▁carniv	-11.3952
▁circulat	-11.3952
▁citizen	-11.3952
▁combat	-11.3952
▁contemn	-11.3952
▁cordial	-11.3952
▁crush	-11.3952
▁defemini	-11.3952
▁deprav	-11.3952
▁digress	-11.3952
▁dinner	-11.3952
▁embellish	-11.3952
▁explicit	-11.3952
▁flexib	-11.3952
▁glisten	-11.3952
▁kitchen	-11.3952
▁languish	-11.3952
▁premature	-11.3952
▁provocati	-11.3952
▁remember	-11.3952
▁scaffold	-11.3952
▁shalt	-11.3952
▁sketch	-11.3952
▁vanishe	-11.3952
▁vulnerab	-11.3952
CEIV	-11.3952
CONDITION	-11.3952
Degree	-11.3952
ECTIVE	-11.3952
ECTO	-11.3952
EFFE	-11.3952
Enlightenment	-11.3952
Freiheit	-11.3952
Grund	-11.3952
Hobbes	-11.3952
ISTENCE	-11.3952
ISTIC	-11.3952
LANGUAGE	-11.3952
LIAR	-11.3952
Logic	-11.3952
MITTED	-11.3952
Nevertheless	-11.3952
PERIENCE	-11.3952
ROUGH	-11.3952
SELVES	-11.3952
STRUCT	-11.3952
Sabbath	-11.3952
Saxon	-11.3952
Stendhal	-11.3952
Survival	-11.3952
TRUTH	-11.3952
ategories	-11.3952
bawler	-11.3952
biography	-11.3952
bridge	-11.3952
civili	-11.3952
conditioning	-11.3952
culptor	-11.3952
delude	-11.3952
despicable	-11.3952
discreet	-11.3952
disrespectful	-11.3952
dividuum	-11.3952
enaissance	-11.3952
foreboded	-11.3952
iduum	-11.3952
intelligent	-11.3952
loving	-11.3952
microscopi	-11.3952
monument	-11.3952
mutilation	-11.3952
ontradistinction	-11.3952
philosophasters	-11.3952
quisition	-11.3952
rescript	-11.3952
resembling	-11.3952
rumbling	-11.3952
tzung	-11.3952
▁ABSURD	-11.3952
▁ALLOW	-11.3952
▁ALSO	-11.3952
▁Ajax	-11.3952
▁Aristotelian	-11.3952
▁Balzac	-11.3952
▁Berlin	-11.3952
▁Boscovich	-11.3952
▁CONSCIENCE	-11.3952
▁Continent	-11.3952
▁Copernicus	-11.3952
▁Cultur	-11.3952
▁DELIGHT	-11.3952
▁DEMOCRATIC	-11.3952
▁DENIES	-11.3952
▁DISCOVER	-11.3952
▁Dionysiokola	-11.3952
▁Egypt	-11.3952
▁Feast	-11.3952
▁Fichte	-11.3952
▁Florentine	-11.3952
▁HEIGHT	-11.3952
▁Helvetius	-11.3952
▁Honesty	-11.3952
▁IGNOBLE	-11.3952
▁INTERPRETATION	-11.3952
▁IRONY	-11.3952
▁LIFE	-11.3952
▁LOGICAL	-11.3952
▁MEDIOCR	-11.3952
▁MEPRISE	-11.3952
▁MODERN	-11.3952
▁NAIVETE	-11.3952
▁OBLIG	-11.3952
▁OBLIGATION	-11.3952
▁ORIGINATE	-11.3952
▁Oedipus	-11.3952
▁PARAMOUNT	-11.3952
▁PERSPECTIVE	-11.3952
▁PLATO	-11.3952
▁PLEAS	-11.3952
▁PRACTI	-11.3952
▁PREFACE	-11.3952
▁PUBLIC	-11.3952
▁Petronius	-11.3952
▁Phoenician	-11.3952
▁RAFFINEMENT	-11.3952
▁RELIGIEU	-11.3952
▁REVERENCE	-11.3952
▁ROMAN	-11.3952
▁SECOND	-11.3952
▁STUPID	-11.3952
▁SUPERSTITION	-11.3952
▁Schiller	-11.3952
▁Siegfried	-11.3952
▁TASTE	-11.3952
▁THINGS	-11.3952
▁THOSE	-11.3952
▁Teuton	-11.3952
▁UNFAVOURABLE	-11.3952
▁Ulysses	-11.3952
▁WITHOUT	-11.3952
▁Wisdom	-11.3952
▁abasement	-11.3952
▁abbreviation	-11.3952
▁accompanie	-11.3952
▁accompaniments	-11.3952
▁acquiring	-11.3952
▁analog	-11.3952
▁annihilate	-11.3952
▁antipodes	-11.3952
▁antithetical	-11.3952
▁anxieties	-11.3952
▁apparatus	-11.3952
▁architecture	-11.3952
▁assistants	-11.3952
▁auxiliaries	-11.3952
▁betoken	-11.3952
▁brown	-11.3952
▁brush	-11.3952
▁caricature	-11.3952
▁category	-11.3952
▁chamber	-11.3952
▁citadel	-11.3952
▁cogitation	-11.3952
▁commendation	-11.3952
▁complain	-11.3952
▁complaisance	-11.3952
▁congratulate	-11.3952
▁corrupter	-11.3952
▁crooked	-11.3952
▁damnation	-11.3952
▁deciding	-11.3952
▁degradation	-11.3952
▁delicacy	-11.3952
▁democracy	-11.3952
▁democrats	-11.3952
▁denounced	-11.3952
▁devote	-11.3952
▁dilettant	-11.3952
▁diminished	-11.3952
▁disadvantage	-11.3952
▁discord	-11.3952
▁discouraging	-11.3952
▁disfavor	-11.3952
▁disquiet	-11.3952
▁dissolve	-11.3952
▁drapery	-11.3952
▁drunkards	-11.3952
▁eccentric	-11.3952
▁ecclesia	-11.3952
▁effemin	-11.3952
▁eighteen	-11.3952
▁elaborat	-11.3952
▁embarrassed	-11.3952
▁encircle	-11.3952
▁energy	-11.3952
▁equilibrium	-11.3952
▁espous	-11.3952
▁estimable	-11.3952
▁estimation	-11.3952
▁evoke	-11.3952
▁fabric	-11.3952
▁fanaticism	-11.3952
▁fidelity	-11.3952
▁fierce	-11.3952
▁forfeit	-11.3952
▁fragran	-11.3952
▁frivol	-11.3952
▁germinated	-11.3952
▁gilded	-11.3952
▁glacier	-11.3952
▁glorify	-11.3952
▁grotesque	-11.3952
▁headstrong	-11.3952
▁hereditarily	-11.3952
▁humbugs	-11.3952
▁humiliation	-11.3952
▁hungry	-11.3952
▁identifies	-11.3952
▁ignore	-11.3952
▁immaterial	-11.3952
▁incisive	-11.3952
▁incorporation	-11.3952
▁indefatigable	-11.3952
▁inexhaustible	-11.3952
▁infection	-11.3952
▁ingenious	-11.3952
▁inscrutable	-11.3952
▁insidiously	-11.3952
▁insignificance	-11.3952
▁insignificant	-11.3952
▁institution	-11.3952
▁intercalated	-11.3952
▁interlocutor	-11.3952
▁interlude	-11.3952
▁interval	-11.3952
▁invincible	-11.3952
▁irrestrainable	-11.3952
▁levity	-11.3952
▁magnified	-11.3952
▁measuring	-11.3952
▁medicine	-11.3952
▁merciless	-11.3952
▁misinterpreted	-11.3952
▁multiplies	-11.3952
▁murder	-11.3952
▁mythology	-11.3952
▁naively	-11.3952
▁nightmare	-11.3952
▁nimble	-11.3952
▁nonsense	-11.3952
▁numerous	-11.3952
▁obstacles	-11.3952
▁obtuseness	-11.3952
▁optimism	-11.3952
▁optimist	-11.3952
▁ordinarily	-11.3952
▁pamper	-11.3952
▁pendulum	-11.3952
▁pigtail	-11.3952
▁placid	-11.3952
▁pleasurable	-11.3952
▁politeness	-11.3952
▁politician	-11.3952
▁politicis	-11.3952
▁polyphon	-11.3952
▁postulate	-11.3952
▁potency	-11.3952
▁pranks	-11.3952
▁predilection	-11.3952
▁prejudicial	-11.3952
▁preordained	-11.3952
▁presumptuous	-11.3952
▁prevalence	-11.3952
▁probability	-11.3952
▁prohibit	-11.3952
▁promiscuous	-11.3952
▁protracted	-11.3952
▁prudence	-11.3952
▁psychical	-11.3952
▁quarter	-11.3952
▁reciprocity	-11.3952
▁reconciliation	-11.3952
▁reject	-11.3952
▁relief	-11.3952
▁resign	-11.3952
▁retreating	-11.3952
▁retrogression	-11.3952
▁ridiculous	-11.3952
▁roguish	-11.3952
▁romanticism	-11.3952
▁sermon	-11.3952
▁shrewd	-11.3952
▁simplification	-11.3952
▁smug	-11.3952
▁soporific	-11.3952
▁studied	-11.3952
▁subordinate	-11.3952
▁supercilious	-11.3952
▁superfluous	-11.3952
▁superlative	-11.3952
▁suppress	-11.3952
▁temple	-11.3952
▁ticklish	-11.3952
▁traverse	-11.3952
▁truckl	-11.3952
▁tyrant	-11.3952
▁unbridled	-11.3952
▁unmistakable	-11.3952
▁unsuspect	-11.3952
▁unwittingly	-11.3952
▁variegated	-11.3952
▁verbiage	-11.3952
▁vessel	-11.3952
▁vexed	-11.3952
▁victorious	-11.3952
▁vindic	-11.3952
▁voucher	-11.3952
▁voyage	-11.3952
▁wondrous	-11.3952
▁wrath	-11.3952
unreasonableness	-11.3952
▁FACT	-11.3952
▁MORT	-11.3952
▁Stael	-11.3952
▁WITH	-11.3952
▁compliment	-11.3952
▁damage	-11.3952
▁defense	-11.3952
▁deference	-11.3952
▁disorder	-11.3952
▁flame	-11.3952
▁furious	-11.3952
▁teasing	-11.3952
▁thrust	-11.3952
Granting	-11.3952
PEOPLE	-11.3952
Second	-11.3952
downwards	-11.3952
ggish	-11.3952
▁Carlyle	-11.3952
▁DESINTERESSE	-11.3952
▁DETERIORATI	-11.3952
▁Doub	-11.3952
▁EMOTION	-11.3952
▁ENGEND	-11.3952
▁HONEST	-11.3952
▁Hunger	-11.3952
▁INTUITI	-11.3952
▁PAIN	-11.3952
▁PROFOUND	-11.3952
▁Social	-11.3952
▁appliance	-11.3952
▁cloak	-11.3952
▁clock	-11.3952
▁console	-11.3952
▁contriv	-11.3952
▁conversant	-11.3952
▁corrupted	-11.3952
▁curious	-11.3952
▁decreases	-11.3952
▁delusive	-11.3952
▁dyna	-11.3952
▁ecsta	-11.3952
▁embolden	-11.3952
▁exhort	-11.3952
▁ghost	-11.3952
▁hanker	-11.3952
▁harbour	-11.3952
▁incantation	-11.3952
▁incomp	-11.3952
▁iridescen	-11.3952
▁jubila	-11.3952
▁liberal	-11.3952
▁neurosis	-11.3952
▁nutrition	-11.3952
▁parliamentar	-11.3952
▁peasant	-11.3952
▁presumed	-11.3952
▁priv	-11.3952
▁purport	-11.3952
▁satisfactor	-11.3952
▁sovereign	-11.3952
▁unequivocal	-11.3952
▁vigil	-11.3952
▁yellow	-11.3952
Artists	-11.3952
CEPTIONS	-11.3952
USIASM	-11.3952
carious	-11.3952
engeance	-11.3952
ippery	-11.3952
nquished	-11.3952
▁CONV	-11.3952
▁Disco	-11.3952
▁Future	-11.3952
▁GENI	-11.3952
▁SACRIFI	-11.3952
▁SIMPL	-11.3952
▁SPIRIT	-11.3952
▁TROU	-11.3952
▁denied	-11.3952
▁exemp	-11.3952
▁exotic	-11.3952
▁expert	-11.3952
▁fetter	-11.3952
▁finish	-11.3952
▁flag	-11.3952
▁forelock	-11.3952
▁hark	-11.3952
▁hushed	-11.3952
▁hysteri	-11.3952
▁lamb	-11.3952
▁maitre	-11.3952
▁muscular	-11.3952
▁northern	-11.3952
▁oak	-11.3952
▁rebellio	-11.3952
▁repel	-11.3952
▁square	-11.3952
▁stiff	-11.3952
▁undiscovered	-11.3952
ICTA	-11.3952
IVERS	-11.3952
bewitch	-11.3952
load	-11.3952
▁flavour	-11.3952
▁philosophising	-11.3952
▁recesses	-11.3952
▁sinister	-11.3952
▁visible	-11.3952
OPH	-11.3952
[13]	-11.3952
[18]	-11.3952
▁concession	-11.3952
▁desperation	-11.3952
▁intoxicating	-11.3952
▁message	-11.3952
▁weather	-11.3952
Empfindung	-11.3952
NTHESI	-11.3952
▁Great	-11.3952
▁Guest	-11.3952
▁Spring	-11.3952
▁check	-11.3952
▁endurance	-11.3952
▁frighten	-11.3952
▁moderate	-11.3952
▁profit	-11.3952
▁retired	-11.3952
▁retiring	-11.3952
ISTS	-11.3952
oafers	-11.3952
reconcil	-11.3952
▁prodig	-11.3952
ASSURE	-11.3952
Furthe	-11.3952
aternity	-11.3952
▁AFTER	-11.3952
▁Renan	-11.3952
▁palm	-11.3952
▁pitch	-11.3952
▁refuse	-11.3952
▁resolv	-11.3952
▁rub	-11.3952
▁shake	-11.3952
▁signify	-11.3952
▁unmerited	-11.3952
▁whisper	-11.3952
mises	-11.3952
▁Hume	-11.3952
▁cult	-11.3952
▁ownership	-11.3952
EADS	-11.3952
▁COMPLETE	-11.3952
▁SUB	-11.3952
▁decorati	-11.3952
▁festal	-11.3952
▁renew	-11.3952
▁Saga	-11.3952
▁bath	-11.3952
▁cultivation	-11.3952
▁curves	-11.3952
▁honey	-11.3952
▁problematic	-11.3952
▁romance	-11.3952
▁termination	-11.3952
▁transfiguration	-11.3952
Two	-11.3952
▁complacen	-11.3952
UDICE	-11.3952
transcendental	-11.3952
▁Spani	-11.3952
▁amorous	-11.3952
▁crystalli	-11.3952
▁deliberately	-11.3952
▁hypochondriac	-11.3952
▁particle	-11.3952
▁unique	-11.3952
onversely	-11.3952
▁mille	-11.3952
▁umbr	-11.3952
GENERA	-11.3952
MPA	-11.3952
▁allegory	-11.3952
▁CAP	-11.3952
▁TYP	-11.3952
▁distribute	-11.3952
▁reliable	-11.3952
▁stray	-11.3952
frankness	-11.3952
▁ENGLAND	-11.3952
▁VII	-11.3952
▁disturbances	-11.3952
▁exceed	-11.3952
gnash	-11.3952
▁calumniat	-11.3952
▁deaf	-11.3952
▁presumabl	-11.3952
▁scourg	-11.3952
▁viti	-11.3952
stellung	-11.3952
▁ONESELF	-11.3952
▁contribut	-11.3952
▁esoteric	-11.3952
▁desensuali	-11.3952
▁healthier	-11.3952
▁zone	-11.3952
APPEAR	-11.3952
searching	-11.3952
egated	-11.3952
▁repentan	-11.3952
[5]	-11.3952
lacerat	-11.3952
▁AME	-11.3952
▁ENTH	-11.3952
▁NECESSAR	-11.3952
▁amuse	-11.3952
▁derivati	-11.3952
▁outward	-11.3952
▁analyz	-11.3952
▁machin	-11.3952
▁save	-11.3952
UNDER	-11.3952
issimu	-11.3952
▁rush	-11.3952
▁absent	-11.3952
▁shred	-11.3952
▁frenzied	-11.3952
▁fructified	-11.3952
▁thoughtlessness	-11.3952
Danger	-11.3952
▁realises	-11.3952
▁petrif	-11.3952
▁lull	-11.3952
▁verita	-11.3952
▁BECOMING	-11.3952
▁region	-11.3952
▁terror	-11.3952
▁thick	-11.3952
lators	-11.3952
EVOL	-11.3952
URRE	-11.3952
▁blessedness	-11.3952
[22]	-11.3952
PRESSION	-11.3952
▁Demo	-11.3952
▁covetousness	-11.3952
▁chaining	-11.3952
▁stifle	-11.3952
▁greed	-11.3952
▁pregnancy	-11.3952
▁irresponsible	-11.3952
▁running	-11.3952
▁legitimate	-11.3952
▁lizard	-11.3952
▁circumspection	-11.3952
[9]	-11.3952
▁DIFFERENTLY	-11.3952
Another	-11.3952
▁piti	-11.3952
▁carpe	-11.3952
▁native	-11.3952
tuation	-11.3952
▁prelude	-11.3952
▁satiety	-11.3952
▁splend	-11.3952
▁OPPOSED	-11.3952
▁solve	-11.3952
▁persistence	-11.3952
▁ascend	-11.3952
Promise	-11.3952
burly	-11.3952
▁Poe	-11.3952
▁cupidity	-11.3952
▁PLAI	-11.3952
Words	-11.3952
ronic	-11.3952
▁conclusive	-11.3952
▁role	-11.3952
▁entice	-11.3952
▁reside	-11.3952
ITION	-11.3952
▁inception	-11.3952
▁Prov	-11.3952
▁mole	-11.3952
▁forbidden	-11.3952
▁obstinate	-11.3952
▁CRIM	-11.3952
henceforward	-11.3952
▁convert	-11.3953
engage	-11.3953
▁affirmative	-11.3953
▁swelling	-11.3953
▁indigen	-11.3953
▁Beweg	-11.3953
▁imaginary	-11.3953
▁Southerner	-11.3953
dvent	-11.3953
▁argue	-11.3953
ISTANCE	-11.3953
▁behaviour	-11.3953
▁trump	-11.3953
▁FRANC	-11.3953
▁brass	-11.3953
▁liar	-11.3953
▁roll	-11.3953
VICE	-11.3953
▁FEELING	-11.3953
▁admixture	-11.3953
▁herald	-11.3953
ohn	-11.3953
▁Mid	-11.3953
▁fanci	-11.3953
▁covet	-11.3953
mocking	-11.3953
▁botch	-11.3953
▁idiocy	-11.3953
▁bolt	-11.3953
▁laede	-11.3953
▁stress	-11.3953
▁Engl	-11.3953
Happ	-11.3953
▁describe	-11.3953
▁discredited	-11.3953
▁sweetened	-11.3953
▁pneumatic	-11.3953
▁ensu	-11.3953
▁RELA	-11.3953
▁gaiety	-11.3953
▁trifl	-11.3953
▁SUPERF	-11.3953
▁forerunners	-11.3953
▁fatig	-11.3953
▁loneliness	-11.3953
ecessary	-11.3954
casual	-11.3954
▁CREATOR	-11.3954
▁spend	-11.3954
unwise	-11.3954
▁REVER	-11.3954
▁arrogance	-11.3954
abits	-11.3954
▁presto	-11.3954
▁royal	-11.3954
rovided	-11.3954
▁98	-11.3954
▁97	-11.3954
▁91	-11.3954
▁illumin	-11.3954
▁III	-11.3954
▁92	-11.3954
petit	-11.3954
▁94	-11.3954
▁instilled	-11.3954
▁autonomous	-11.3954
▁hazardous	-11.3954
▁99	-11.3954
▁93	-11.3954
▁knee	-11.3954
esuitical	-11.3954
▁speed	-11.3954
▁governess	-11.3954
False	-11.3954
▁cynicism	-11.3954
ponder	-11.3954
extrica	-11.3954
coco	-11.3954
▁ruse	-11.3954
▁rhetorician	-11.3954
▁95	-11.3954
BIG	-11.3954
▁parade	-11.3954
wearied	-11.3954
▁descent	-11.3954
▁narcotic	-11.3954
▁preferably	-11.3954
▁resent	-11.3954
▁COMMON	-11.3954
▁HEART	-11.3955
▁96	-11.3955
▁managed	-11.3955
▁VIRTUES	-11.3955
▁sensualism	-11.3955
▁maj	-11.3955
▁insatiable	-11.3955
realists	-11.3955
aradise	-11.3955
intoxicati	-11.3955
▁predetermined	-11.3955
▁shock	-11.3955
▁Simpl	-11.3955
▁aug	-11.3955
GRE	-11.3955
evenge	-11.3955
▁frantic	-11.3955
▁representative	-11.3955
▁arose	-11.3955
▁susceptibility	-11.3955
ountain	-11.3955
▁Helleni	-11.3955
▁specialized	-11.3955
▁hinted	-11.3955
▁sunlight	-11.3955
▁urge	-11.3955
▁discharge	-11.3955
actorily	-11.3955
▁disappear	-11.3955
▁shy	-11.3955
tinence	-11.3955
underline	-11.3955
▁SUCCESS	-11.3955
▁Buddhism	-11.3956
▁LAW	-11.3956
▁sprung	-11.3956
▁agreeably	-11.3956
TUAL	-11.3956
▁fraught	-11.3956
surre	-11.3956
▁climate	-11.3956
▁Celt	-11.3956
▁hallow	-11.3956
▁fused	-11.3957
▁HERE	-11.3957
▁patriotism	-11.3957
▁Dionysus	-11.3957
icles	-11.3957
▁dirt	-11.3957
▁horn	-11.3957
▁shutting	-11.3957
▁balance	-11.3958
▁precede	-11.3958
▁audi	-11.3958
▁HARD	-11.3958
▁RECO	-11.3958
ENTLY	-11.3958
▁specialties	-11.3958
▁bleed	-11.3959
conom	-11.3959
▁thither	-11.3959
▁flute	-11.3959
▁comical	-11.3959
▁humanely	-11.3959
▁protectors	-11.3959
rreligious	-11.3959
pyre	-11.3959
▁bravery	-11.3959
▁Puritanism	-11.396
▁invade	-11.396
spel	-11.396
▁crime	-11.396
▁insert	-11.396
▁feat	-11.3961
▁capture	-11.3961
▁tried	-11.3961
▁beset	-11.3961
ubin	-11.3961
▁trial	-11.3961
Epi	-11.3961
▁dart	-11.3961
▁dash	-11.3961
gency	-11.3961
▁impurit	-11.3962
▁tail	-11.3962
leaning	-11.3962
ETTE	-11.3962
▁adventurers	-11.3963
elicit	-11.3964
coiled	-11.3964
▁indulgen	-11.3964
▁entra	-11.3964
▁resemblance	-11.3964
▁East	-11.3965
Gener	-11.3965
ENCH	-11.3966
▁Observation	-11.3966
UTED	-11.3966
RAIS	-11.3967
▁burie	-11.3967
2	-12.3564
(	-12.3851
q	-12.8942
v	-12.8943
